{
  "version": "1.0",
  "truncation": null,
  "padding": null,
  "added_tokens": [
    {
      "id": 0,
      "content": "[EOS]",
      "single_word": false,
      "lstrip": false,
      "rstrip": false,
      "normalized": false,
      "special": true
    },
    {
      "id": 1,
      "content": "[UNK]",
      "single_word": false,
      "lstrip": false,
      "rstrip": false,
      "normalized": false,
      "special": true
    },
    {
      "id": 2,
      "content": "[PAD]",
      "single_word": false,
      "lstrip": false,
      "rstrip": false,
      "normalized": false,
      "special": true
    },
    {
      "id": 3,
      "content": "[CLS]",
      "single_word": false,
      "lstrip": false,
      "rstrip": false,
      "normalized": false,
      "special": true
    }
  ],
  "normalizer": null,
  "pre_tokenizer": {
    "type": "ByteLevel",
    "add_prefix_space": false,
    "trim_offsets": true,
    "use_regex": true
  },
  "post_processor": {
    "type": "TemplateProcessing",
    "single": [
      {
        "Sequence": {
          "id": "A",
          "type_id": 0
        }
      },
      {
        "SpecialToken": {
          "id": "[EOS]",
          "type_id": 0
        }
      }
    ],
    "pair": [
      {
        "Sequence": {
          "id": "A",
          "type_id": 0
        }
      },
      {
        "Sequence": {
          "id": "B",
          "type_id": 1
        }
      }
    ],
    "special_tokens": {
      "[CLS]": {
        "id": "[CLS]",
        "ids": [
          3
        ],
        "tokens": [
          "[CLS]"
        ]
      },
      "[EOS]": {
        "id": "[EOS]",
        "ids": [
          0
        ],
        "tokens": [
          "[EOS]"
        ]
      }
    }
  },
  "decoder": {
    "type": "ByteLevel",
    "add_prefix_space": true,
    "trim_offsets": true,
    "use_regex": true
  },
  "model": {
    "type": "BPE",
    "dropout": null,
    "unk_token": null,
    "continuing_subword_prefix": null,
    "end_of_word_suffix": null,
    "fuse_unk": false,
    "byte_fallback": false,
    "ignore_merges": false,
    "vocab": {
      "[EOS]": 0,
      "[UNK]": 1,
      "[PAD]": 2,
      "[CLS]": 3,
      "!": 4,
      "\"": 5,
      "#": 6,
      "$": 7,
      "%": 8,
      "&": 9,
      "'": 10,
      "(": 11,
      ")": 12,
      "*": 13,
      "+": 14,
      ",": 15,
      "-": 16,
      ".": 17,
      "/": 18,
      "0": 19,
      "1": 20,
      "2": 21,
      "3": 22,
      "4": 23,
      "5": 24,
      "6": 25,
      "7": 26,
      "8": 27,
      "9": 28,
      ":": 29,
      ";": 30,
      "<": 31,
      "=": 32,
      ">": 33,
      "?": 34,
      "@": 35,
      "[": 36,
      "\\": 37,
      "]": 38,
      "^": 39,
      "_": 40,
      "`": 41,
      "a": 42,
      "b": 43,
      "c": 44,
      "d": 45,
      "e": 46,
      "f": 47,
      "g": 48,
      "h": 49,
      "i": 50,
      "j": 51,
      "k": 52,
      "l": 53,
      "m": 54,
      "n": 55,
      "o": 56,
      "p": 57,
      "q": 58,
      "r": 59,
      "s": 60,
      "t": 61,
      "u": 62,
      "v": 63,
      "w": 64,
      "x": 65,
      "y": 66,
      "z": 67,
      "{": 68,
      "|": 69,
      "}": 70,
      "~": 71,
      "¡": 72,
      "¢": 73,
      "£": 74,
      "¤": 75,
      "¥": 76,
      "¦": 77,
      "§": 78,
      "¨": 79,
      "©": 80,
      "ª": 81,
      "«": 82,
      "¬": 83,
      "®": 84,
      "¯": 85,
      "°": 86,
      "±": 87,
      "²": 88,
      "³": 89,
      "´": 90,
      "µ": 91,
      "¶": 92,
      "·": 93,
      "¸": 94,
      "¹": 95,
      "º": 96,
      "»": 97,
      "¼": 98,
      "½": 99,
      "¾": 100,
      "¿": 101,
      "Â": 102,
      "Ã": 103,
      "Ä": 104,
      "Å": 105,
      "Ç": 106,
      "È": 107,
      "É": 108,
      "Ê": 109,
      "Ë": 110,
      "Ì": 111,
      "Î": 112,
      "Ï": 113,
      "Ð": 114,
      "Ñ": 115,
      "Ò": 116,
      "Ó": 117,
      "Ö": 118,
      "×": 119,
      "Ø": 120,
      "Ù": 121,
      "Ú": 122,
      "Û": 123,
      "à": 124,
      "á": 125,
      "â": 126,
      "ã": 127,
      "ä": 128,
      "å": 129,
      "æ": 130,
      "ç": 131,
      "è": 132,
      "é": 133,
      "ð": 134,
      "Ġ": 135,
      "Ģ": 136,
      "ģ": 137,
      "Ĥ": 138,
      "ĥ": 139,
      "Ħ": 140,
      "ħ": 141,
      "Ĩ": 142,
      "ĩ": 143,
      "Ī": 144,
      "ī": 145,
      "Ĭ": 146,
      "ĭ": 147,
      "Į": 148,
      "į": 149,
      "İ": 150,
      "ı": 151,
      "Ĳ": 152,
      "ĳ": 153,
      "Ĵ": 154,
      "ĵ": 155,
      "Ķ": 156,
      "ķ": 157,
      "ĸ": 158,
      "Ĺ": 159,
      "ĺ": 160,
      "Ļ": 161,
      "ļ": 162,
      "Ľ": 163,
      "ľ": 164,
      "Ŀ": 165,
      "ŀ": 166,
      "Ł": 167,
      "ł": 168,
      "Ń": 169,
      "je": 170,
      "Ġs": 171,
      "Ġp": 172,
      "na": 173,
      "Ġi": 174,
      "ra": 175,
      "ni": 176,
      "ko": 177,
      "Ġo": 178,
      "Ġd": 179,
      "Ġu": 180,
      "ti": 181,
      "no": 182,
      "re": 183,
      "Äį": 184,
      "va": 185,
      "li": 186,
      "Å¡": 187,
      "ta": 188,
      "ja": 189,
      "ri": 190,
      "la": 191,
      "ma": 192,
      "ne": 193,
      "ka": 194,
      "Ġpo": 195,
      "Ġna": 196,
      "Ġz": 197,
      "Ġje": 198,
      "vi": 199,
      "te": 200,
      "ro": 201,
      "to": 202,
      "vo": 203,
      "Äĩ": 204,
      "Å¾": 205,
      "Ġb": 206,
      "Ġm": 207,
      "Ġza": 208,
      "ve": 209,
      "Ġko": 210,
      "lo": 211,
      "ci": 212,
      "Ġa": 213,
      "ju": 214,
      "ji": 215,
      "Ġg": 216,
      "di": 217,
      "da": 218,
      "Ġse": 219,
      "nje": 220,
      "Ġk": 221,
      "Ġda": 222,
      "st": 223,
      "ru": 224,
      "le": 225,
      "Ġod": 226,
      "Ġsu": 227,
      "ki": 228,
      "Ġt": 229,
      "Ġne": 230,
      "Ġka": 231,
      "Ġdo": 232,
      "me": 233,
      "Ġsa": 234,
      "Ġiz": 235,
      "Ġpro": 236,
      "mo": 237,
      "ke": 238,
      "sta": 239,
      "Ġra": 240,
      "ga": 241,
      "Äĳ": 242,
      "sti": 243,
      "Ġbi": 244,
      "go": 245,
      "nu": 246,
      "nja": 247,
      "Ġpri": 248,
      "ku": 249,
      "Ġv": 250,
      "Äįi": 251,
      "ca": 252,
      "Ġpre": 253,
      "zi": 254,
      "po": 255,
      "Ġmo": 256,
      "lje": 257,
      "Ġh": 258,
      "Äĩe": 259,
      "lu": 260,
      "Ġte": 261,
      "ce": 262,
      "de": 263,
      "Äįe": 264,
      "mi": 265,
      "bi": 266,
      "Ġ1": 267,
      "pa": 268,
      "ba": 269,
      "ĠÅ¡": 270,
      "tu": 271,
      "Å¾e": 272,
      "sko": 273,
      "Ġma": 274,
      "si": 275,
      "Ġto": 276,
      "Ġf": 277,
      "Ġgo": 278,
      "Ġ-": 279,
      "ski": 280,
      "do": 281,
      "Ġ(": 282,
      "Ġe": 283,
      "Å¾i": 284,
      "Äįa": 285,
      "za": 286,
      "bo": 287,
      "sa": 288,
      "pi": 289,
      "Ġni": 290,
      "Äĩi": 291,
      "lja": 292,
      "Ġre": 293,
      "nih": 294,
      "sto": 295,
      "âĢ": 296,
      "Äĳe": 297,
      "Ġvi": 298,
      "Ġve": 299,
      "nji": 300,
      "Ġ2": 301,
      "Ġta": 302,
      "jo": 303,
      "se": 304,
      "Ġpa": 305,
      "Å¾a": 306,
      "Ġst": 307,
      "Ġmi": 308,
      "Ġkoji": 309,
      "du": 310,
      "nog": 311,
      "Å¡e": 312,
      "nom": 313,
      "Ġc": 314,
      "gu": 315,
      "rije": 316,
      "Äĩa": 317,
      "Ġno": 318,
      "Ġli": 319,
      "lju": 320,
      "Ġme": 321,
      "Ġgra": 322,
      "vje": 323,
      "00": 324,
      "gra": 325,
      "nim": 326,
      "Ġbo": 327,
      "Ġdi": 328,
      "gi": 329,
      "ske": 330,
      "be": 331,
      "Ġin": 332,
      "cije": 333,
      "Ġos": 334,
      "Ġob": 335,
      "rva": 336,
      "pe": 337,
      "lji": 338,
      "Ġsta": 339,
      "Ġgodi": 340,
      "pu": 341,
      "ze": 342,
      "vr": 343,
      "Ġraz": 344,
      "Ġsvo": 345,
      "mje": 346,
      "Ġdru": 347,
      "Å¡i": 348,
      "cija": 349,
      "vu": 350,
      "Ġja": 351,
      "Ġpra": 352,
      "ĠÄĩe": 353,
      "Ġsve": 354,
      "Ġva": 355,
      "ĠâĢ": 356,
      "Ġkao": 357,
      "Ġpos": 358,
      "nju": 359,
      "ge": 360,
      "Ġti": 361,
      "lj": 362,
      "..": 363,
      "Ġnje": 364,
      "Ġkoje": 365,
      "Å¡a": 366,
      "Ġpu": 367,
      "Ġvo": 368,
      "ĠÅ¡to": 369,
      "su": 370,
      "vije": 371,
      "sni": 372,
      "Ġku": 373,
      "Ġhrva": 374,
      "Ġba": 375,
      "Ġsi": 376,
      "or": 377,
      "dni": 378,
      "Ġili": 379,
      "nosti": 380,
      "ho": 381,
      "Ġdje": 382,
      "Ġpod": 383,
      "Ġhrvat": 384,
      "Ġima": 385,
      "kom": 386,
      "ska": 387,
      "ĠÄį": 388,
      "rÅ¾a": 389,
      "Ġnaj": 390,
      "tni": 391,
      "pre": 392,
      "bu": 393,
      "Ġdu": 394,
      "so": 395,
      "||": 396,
      "Ġmu": 397,
      "vni": 398,
      "mu": 399,
      "Ġvla": 400,
      "Ġbe": 401,
      "Äĳu": 402,
      "Ġde": 403,
      "dno": 404,
      "dje": 405,
      "pra": 406,
      "ĠÅ¾i": 407,
      "nt": 408,
      "Ġis": 409,
      "he": 410,
      "Ġga": 411,
      "vanje": 412,
      "Ġpred": 413,
      "Ġkra": 414,
      "Ġro": 415,
      "Ġ\"": 416,
      "Ġ19": 417,
      "rt": 418,
      "ran": 419,
      "Ġnije": 420,
      "cu": 421,
      "Äįki": 422,
      "vlja": 423,
      "zna": 424,
      "Ġgodine": 425,
      "Ġzna": 426,
      "Ġjo": 427,
      "Ġsamo": 428,
      "ha": 429,
      "stu": 430,
      "skog": 431,
      "Ġpe": 432,
      "Ġpr": 433,
      "Ġdana": 434,
      "Ġtre": 435,
      "zo": 436,
      "Ġkako": 437,
      "Ġus": 438,
      "Äĳa": 439,
      "Å¡te": 440,
      "vno": 441,
      "skih": 442,
      "Ġkoja": 443,
      "Ġsvi": 444,
      "Å¡t": 445,
      "Ġpot": 446,
      "Ġvr": 447,
      "Ġtra": 448,
      "Ġtu": 449,
      "Äĩu": 450,
      "Ġtako": 451,
      "Å¾u": 452,
      "ste": 453,
      "Ġpi": 454,
      "Ġali": 455,
      "Ġuz": 456,
      "Å¡ta": 457,
      "ĠÄįi": 458,
      "kon": 459,
      "ĠÄįe": 460,
      "Ġmje": 461,
      "nta": 462,
      "fi": 463,
      "gre": 464,
      "Ġlju": 465,
      "ĠmoÅ¾e": 466,
      "zu": 467,
      "hi": 468,
      "Ġ3": 469,
      "vanja": 470,
      "ĠÅ¾e": 471,
      "rija": 472,
      "liko": 473,
      "Ġze": 474,
      "nost": 475,
      "Ġlo": 476,
      "Ġgla": 477,
      "Ġfi": 478,
      "Ġpla": 479,
      "vom": 480,
      "Ġsam": 481,
      "Ġw": 482,
      "Ġnji": 483,
      "Ġkori": 484,
      "Ġan": 485,
      "Ġot": 486,
      "ng": 487,
      "ĠâĢĵ": 488,
      "Ġslu": 489,
      "tra": 490,
      "Äįu": 491,
      "Ġkon": 492,
      "Ġstra": 493,
      "Ġsva": 494,
      "nije": 495,
      "Ġau": 496,
      "Ġ200": 497,
      "Ġnjego": 498,
      "Ġbro": 499,
      "Ġru": 500,
      "red": 501,
      "Ġbio": 502,
      "kre": 503,
      "Ġ|": 504,
      "Ġbu": 505,
      "Ġjed": 506,
      "ĠÄįla": 507,
      "Ġsto": 508,
      "vati": 509,
      "Ġstva": 510,
      "iz": 511,
      "Ġosta": 512,
      "Ġvje": 513,
      "ĠviÅ¡e": 514,
      "Ġor": 515,
      "fe": 516,
      "Ġop": 517,
      "om": 518,
      "rati": 519,
      "jedni": 520,
      "Ġmogu": 521,
      "sku": 522,
      "stva": 523,
      "ruÄį": 524,
      "nal": 525,
      "nica": 526,
      "on": 527,
      "Ġnakon": 528,
      "Ġla": 529,
      "Ġspo": 530,
      "Ġovo": 531,
      "Ġprije": 532,
      "skoj": 533,
      "Äįko": 534,
      "Ġvrije": 535,
      "tje": 536,
      "kti": 537,
      "01": 538,
      "skom": 539,
      "Ġju": 540,
      "Ġako": 541,
      "ĠÅ¾ivo": 542,
      "nika": 543,
      "Å¡ti": 544,
      "Ġon": 545,
      "Ġradi": 546,
      "nici": 547,
      "dan": 548,
      "vima": 549,
      "Ġce": 550,
      "Ġveli": 551,
      "lije": 552,
      "Äįke": 553,
      "lazi": 554,
      "ter": 555,
      "Ġzagre": 556,
      "__": 557,
      "jom": 558,
      "Ġthe": 559,
      "Ġrije": 560,
      "Ġle": 561,
      "Ġci": 562,
      "Ġri": 563,
      "Ġoso": 564,
      "Ġknji": 565,
      "Ġso": 566,
      "Ġprema": 567,
      "Ġobi": 568,
      "Ġcr": 569,
      "gla": 570,
      "sno": 571,
      "tak": 572,
      "nti": 573,
      "vlje": 574,
      "Ġposta": 575,
      "Ġtr": 576,
      "gle": 577,
      "Ġzem": 578,
      "reme": 579,
      "Ġcije": 580,
      "stvo": 581,
      "Ġproiz": 582,
      "...": 583,
      "govo": 584,
      "Ġbiti": 585,
      "),": 586,
      "telj": 587,
      "vali": 588,
      "bro": 589,
      "njem": 590,
      "Ġjer": 591,
      "noj": 592,
      ").": 593,
      "Ġzbo": 594,
      "ĠÅ¾u": 595,
      "van": 596,
      "Ġsmo": 597,
      "Ġoko": 598,
      "spo": 599,
      "nice": 600,
      "ciju": 601,
      "Ġtije": 602,
      "Ġkri": 603,
      "ĠÅ¡ko": 604,
      "dra": 605,
      "Ġho": 606,
      "skim": 607,
      "ĠjoÅ¡": 608,
      "ĠmeÄĳu": 609,
      "Ġproizvo": 610,
      "stra": 611,
      "viÄĩ": 612,
      "vne": 613,
      "vla": 614,
      "Ġ4": 615,
      "tka": 616,
      "for": 617,
      "Ġfa": 618,
      "Ġstu": 619,
      "Ġbilo": 620,
      "tom": 621,
      "ĠdrÅ¾a": 622,
      "Ġdrugi": 623,
      "tno": 624,
      "Ġdije": 625,
      "Ġupra": 626,
      "ĠveÄĩ": 627,
      "zira": 628,
      "gani": 629,
      "Ġkad": 630,
      "Ġeu": 631,
      "joj": 632,
      "Ġizra": 633,
      "nci": 634,
      "Ġpoli": 635,
      "Ġauto": 636,
      "rom": 637,
      "kla": 638,
      "Ġca": 639,
      "Ġzbog": 640,
      "Äįno": 641,
      "ĠpoÄįe": 642,
      "mije": 643,
      "Ġosno": 644,
      "redi": 645,
      "juÄĩi": 646,
      "tro": 647,
      "Ġsla": 648,
      "Ġmora": 649,
      "Ġsvoje": 650,
      "Ġtreba": 651,
      "nik": 652,
      "Ġsad": 653,
      "Ġorgani": 654,
      "Ġar": 655,
      "bli": 656,
      "reÄĳe": 657,
      "vim": 658,
      "Ġodno": 659,
      "ĠodrÅ¾a": 660,
      "Ġposlo": 661,
      "al": 662,
      "sla": 663,
      "Ġge": 664,
      "vih": 665,
      "Ġ5": 666,
      "pri": 667,
      "Ġposto": 668,
      "Ġbila": 669,
      "Ġgodina": 670,
      "Ġsvje": 671,
      "Ġosi": 672,
      "ĠÄįa": 673,
      "Ġtvr": 674,
      "Ġvlasni": 675,
      "âĢľ": 676,
      "kup": 677,
      "nj": 678,
      "onal": 679,
      "Ġsje": 680,
      "Ġnjiho": 681,
      "pro": 682,
      "Ġgrad": 683,
      "Ġkod": 684,
      "sli": 685,
      "voj": 686,
      "dom": 687,
      "ĠpodruÄį": 688,
      "Ġova": 689,
      "Ġslo": 690,
      "dar": 691,
      "cima": 692,
      "Ġtri": 693,
      "telji": 694,
      "Äįin": 695,
      "vori": 696,
      "Ġfo": 697,
      "Ġpose": 698,
      "Ġal": 699,
      "Ġkada": 700,
      "ranje": 701,
      "dio": 702,
      "Ġkr": 703,
      "pisa": 704,
      "Ġ:": 705,
      "lek": 706,
      "Ġneko": 707,
      "Ġnasta": 708,
      "Ġha": 709,
      "Ġvrijeme": 710,
      "nima": 711,
      "nski": 712,
      "ĠdruÅ¡t": 713,
      "vna": 714,
      "Ġnas": 715,
      "--": 716,
      "Ġoba": 717,
      "Ġdok": 718,
      "dne": 719,
      "Ġdobi": 720,
      "rni": 721,
      "Ġsvije": 722,
      "nak": 723,
      "Äįka": 724,
      "Å¡ko": 725,
      "Å¡to": 726,
      "Ġbez": 727,
      "Ġpomo": 728,
      "bno": 729,
      "ĠâĢŀ": 730,
      "rno": 731,
      "Ġzah": 732,
      "Ġmla": 733,
      "lom": 734,
      "ĠgraÄĳe": 735,
      "Ġpje": 736,
      "Ġtaj": 737,
      "Ġnad": 738,
      "bra": 739,
      "Ġki": 740,
      "dru": 741,
      "viti": 742,
      "Ġhe": 743,
      "Ġhrvatske": 744,
      "Ġsr": 745,
      "loÅ¾": 746,
      "Ġkro": 747,
      "Ġdr": 748,
      "cij": 749,
      "Ġ18": 750,
      ".,": 751,
      "Ġlu": 752,
      "Ġdjela": 753,
      "Ġprosto": 754,
      "Ġumje": 755,
      "jek": 756,
      "Ġisto": 757,
      "Ġpravo": 758,
      "kri": 759,
      "vara": 760,
      "jim": 761,
      "Ġih": 762,
      "Ġr": 763,
      "Ġhi": 764,
      "vio": 765,
      "pli": 766,
      "Ġmar": 767,
      "kra": 768,
      "klju": 769,
      "nd": 770,
      "Ġizvo": 771,
      "vao": 772,
      "Ġpotre": 773,
      "ciji": 774,
      "tiv": 775,
      "tim": 776,
      "Ġdanas": 777,
      "stri": 778,
      "Ġobra": 779,
      "Ġsli": 780,
      "Ġodlu": 781,
      "Ġbroj": 782,
      "forma": 783,
      "Ġprija": 784,
      "Ġgdje": 785,
      "âĢĿ": 786,
      "ĠâĢľ": 787,
      "Ġ6": 788,
      "Ġn": 789,
      "Ġprava": 790,
      "ĠÅ¾upa": 791,
      "Ġ201": 792,
      "Ġupo": 793,
      "Ġzako": 794,
      "pada": 795,
      "ltu": 796,
      "Ġdva": 797,
      "Ġpredsta": 798,
      "Ġdio": 799,
      "stve": 800,
      "klo": 801,
      "kretni": 802,
      "Ġpar": 803,
      "vnih": 804,
      "nka": 805,
      "Ġjedan": 806,
      "vore": 807,
      "tko": 808,
      "ĠÅ¡i": 809,
      "vog": 810,
      "stup": 811,
      "nske": 812,
      "Ġzemlji": 813,
      "Ġrado": 814,
      "Ġkre": 815,
      "Ġprimje": 816,
      "rani": 817,
      "Ġiza": 818,
      "Ġljudi": 819,
      "com": 820,
      "Ġnu": 821,
      "Ġtoga": 822,
      "tar": 823,
      "Ġkom": 824,
      "Ġrazli": 825,
      "Ġrad": 826,
      "ĠsluÅ¾": 827,
      "co": 828,
      "man": 829,
      "hu": 830,
      "Ġof": 831,
      "Ġnekretni": 832,
      "Äįkih": 833,
      "Ġ'": 834,
      "Ġ15": 835,
      "jem": 836,
      "ĠnaÄįin": 837,
      "vaju": 838,
      "Ġfe": 839,
      "pje": 840,
      "vina": 841,
      "Ġdra": 842,
      "Ġste": 843,
      "Ġand": 844,
      "Ġona": 845,
      "tor": 846,
      "Ġsna": 847,
      "Ġim": 848,
      "Ġide": 849,
      "Ġjedi": 850,
      "Ġprogra": 851,
      "ĠzaÅ¡ti": 852,
      "Ġsti": 853,
      "Ġdan": 854,
      "godi": 855,
      "Ġposje": 856,
      "sje": 857,
      "tne": 858,
      "ver": 859,
      "Ġkultu": 860,
      "ĠÂ": 861,
      "log": 862,
      "Ġnema": 863,
      "menta": 864,
      "Äĳer": 865,
      "kao": 866,
      "Ġnego": 867,
      "telja": 868,
      "Ġbr": 869,
      "Ġinte": 870,
      "ner": 871,
      "grad": 872,
      "tri": 873,
      "Ġinforma": 874,
      "Ġeuro": 875,
      "Ġdrugo": 876,
      "ĠtakoÄĳer": 877,
      "lno": 878,
      "Ġkoju": 879,
      "Ġjedno": 880,
      "rna": 881,
      "Ð¸": 882,
      "Äĳi": 883,
      "ble": 884,
      "Ġtek": 885,
      "____": 886,
      "Ġgu": 887,
      "stru": 888,
      "Ġsusta": 889,
      "Ġlije": 890,
      "Ġove": 891,
      "in": 892,
      "Äįkog": 893,
      "rta": 894,
      "Ġ199": 895,
      "Ġ10": 896,
      "Ġneki": 897,
      "Ġteh": 898,
      "niji": 899,
      "Ġdjelo": 900,
      "Ġsma": 901,
      "Ġvreme": 902,
      "Ġime": 903,
      "Ġdobro": 904,
      "Ġvoj": 905,
      "Ġvlasti": 906,
      "Ġzapo": 907,
      "cional": 908,
      "Ġnisu": 909,
      "ren": 910,
      "Äįne": 911,
      "Ġprvi": 912,
      "200": 913,
      "Å¡nje": 914,
      "vnom": 915,
      "Ġpozna": 916,
      "gor": 917,
      "Ġgrada": 918,
      "Ġpopu": 919,
      "rod": 920,
      "Ġsred": 921,
      "Ġpove": 922,
      "kve": 923,
      "Ġbili": 924,
      "Ġstvari": 925,
      "meÄĳu": 926,
      "vnog": 927,
      "Ġbri": 928,
      "nova": 929,
      "Ġope": 930,
      "Ġpoja": 931,
      "Ġzajedni": 932,
      "ĠizloÅ¾": 933,
      "Ġsvjet": 934,
      "volj": 935,
      "gleda": 936,
      "Ġspa": 937,
      "ĠÄįu": 938,
      "ĠuÄįi": 939,
      "Ġobja": 940,
      "Ġure": 941,
      "ĠÄįlanak": 942,
      "lne": 943,
      "Ġ7": 944,
      "nama": 945,
      "Ġok": 946,
      "star": 947,
      "Ġteme": 948,
      "ĠÄįo": 949,
      "Ġkroz": 950,
      "pla": 951,
      "Ðµ": 952,
      "Ġsati": 953,
      "Ð°": 954,
      "diti": 955,
      "rne": 956,
      "ĠizmeÄĳu": 957,
      "Ġlje": 958,
      "Ġdvo": 959,
      "Ġmalo": 960,
      "Ġhrvatskoj": 961,
      "ch": 962,
      "lima": 963,
      "ĠsluÄįa": 964,
      "Ġ20": 965,
      "sjedni": 966,
      "vanju": 967,
      "Ġpodu": 968,
      "ĠÅ¡e": 969,
      "Ġopre": 970,
      "tke": 971,
      "logi": 972,
      "Ġvrlo": 973,
      "jedi": 974,
      "Ġnalazi": 975,
      "Ġpozi": 976,
      "Ġsmje": 977,
      "Å¡nji": 978,
      "nija": 979,
      "Ġudru": 980,
      "Ġmedi": 981,
      "Ġsvojim": 982,
      "Ġkoristi": 983,
      "Ġ8": 984,
      "Ġigra": 985,
      "Ġisti": 986,
      "Ġmuze": 987,
      "Ġuslu": 988,
      "Ġzagreba": 989,
      "lni": 990,
      "\",": 991,
      "vrÅ¡i": 992,
      "Ġsvoj": 993,
      "Ġuvje": 994,
      "lova": 995,
      "kaza": 996,
      "Ġkojima": 997,
      "Ġmate": 998,
      "Ġnam": 999,
      "novi": 1000,
      "Ġnekoliko": 1001,
      "rio": 1002,
      "lan": 1003,
      "Ġtro": 1004,
      "000": 1005,
      "Ġorganiza": 1006,
      "Ġfil": 1007,
      "Ġvam": 1008,
      "sre": 1009,
      "Ġsada": 1010,
      "Ġjedna": 1011,
      "ĠuÄįe": 1012,
      "Ġbra": 1013,
      "nstve": 1014,
      "vreme": 1015,
      "met": 1016,
      "ĠveÄĩi": 1017,
      "Ġproda": 1018,
      "Ġsvih": 1019,
      "tjeca": 1020,
      "vin": 1021,
      "Ġfoto": 1022,
      "ĠodreÄĳe": 1023,
      "men": 1024,
      "bora": 1025,
      "rima": 1026,
      "Ġkla": 1027,
      "Ġprotiv": 1028,
      "Äįni": 1029,
      "Ġveliki": 1030,
      "Ġ9": 1031,
      "Å¡ki": 1032,
      "risti": 1033,
      "Ġjezi": 1034,
      "Ġneka": 1035,
      "Ġinter": 1036,
      "nce": 1037,
      "Ġvra": 1038,
      "vijek": 1039,
      "ĠvlasniÅ¡t": 1040,
      "Ġono": 1041,
      "ĠÑ": 1042,
      "Ġplo": 1043,
      "Ġnazi": 1044,
      "sne": 1045,
      "lta": 1046,
      "Ġnajbo": 1047,
      "lim": 1048,
      "Ġpoliti": 1049,
      "Ġpravi": 1050,
      "Å¡ka": 1051,
      "Ġviso": 1052,
      "tvr": 1053,
      "Ġpovije": 1054,
      "bri": 1055,
      "lija": 1056,
      "kle": 1057,
      "Ġtada": 1058,
      "an": 1059,
      "Å¾no": 1060,
      "Äĳenje": 1061,
      "ĠÄįovje": 1062,
      "niti": 1063,
      "Ġgospo": 1064,
      "meri": 1065,
      "tna": 1066,
      "Ġmode": 1067,
      "Ġelek": 1068,
      "Ġosje": 1069,
      "Ġtijekom": 1070,
      "Å¡ao": 1071,
      "Ġuspje": 1072,
      "Ġdruge": 1073,
      "Ġpredsjedni": 1074,
      "Äįiti": 1075,
      "bor": 1076,
      "Ġvije": 1077,
      "vala": 1078,
      "Ġras": 1079,
      "Ġfor": 1080,
      "stupa": 1081,
      "Ġpita": 1082,
      "nira": 1083,
      "jih": 1084,
      "Ġoni": 1085,
      "Ġglaz": 1086,
      "ndi": 1087,
      "ĠnaÅ¡e": 1088,
      "Ġzdra": 1089,
      "Ġtrgo": 1090,
      "Ġproble": 1091,
      "Ġco": 1092,
      "kova": 1093,
      "Ġproizvod": 1094,
      "Ġtome": 1095,
      "nk": 1096,
      "Ġpoda": 1097,
      "Ġmnog": 1098,
      "Ġodgo": 1099,
      "Ġnika": 1100,
      "Ġkvali": 1101,
      "Ġarhi": 1102,
      "ako": 1103,
      "Ġrje": 1104,
      "Ġnovi": 1105,
      "kovi": 1106,
      "nda": 1107,
      "Ġzapre": 1108,
      "Ġkojem": 1109,
      "ll": 1110,
      "nera": 1111,
      "tnosti": 1112,
      "Ġspe": 1113,
      "Ġpono": 1114,
      "Ġodnosno": 1115,
      "kr": 1116,
      "Ġ12": 1117,
      "rak": 1118,
      "Ġzi": 1119,
      "tima": 1120,
      "tku": 1121,
      "Ġfran": 1122,
      "ple": 1123,
      "201": 1124,
      "Ġprojek": 1125,
      "Ġtom": 1126,
      "Ġvu": 1127,
      "Äįkom": 1128,
      "Ġ0": 1129,
      "mati": 1130,
      "Ġbla": 1131,
      "nuti": 1132,
      "ĠstruÄį": 1133,
      "vede": 1134,
      "nosi": 1135,
      "Å¡Äĩe": 1136,
      "gao": 1137,
      "Ġpret": 1138,
      "19": 1139,
      "blje": 1140,
      "Ġovaj": 1141,
      "Ð¾": 1142,
      "jedno": 1143,
      "Ġsku": 1144,
      "Ġ16": 1145,
      "Ġrepu": 1146,
      "Ġmini": 1147,
      "hva": 1148,
      "Ġ,": 1149,
      "fa": 1150,
      "vana": 1151,
      "Ġklu": 1152,
      "Ġpreko": 1153,
      "Ġ2007": 1154,
      "Ġistra": 1155,
      "ĠsadrÅ¾a": 1156,
      "Ġ17": 1157,
      "tion": 1158,
      "Ġgr": 1159,
      "Ġpriro": 1160,
      "rti": 1161,
      "Å¡iÄĩ": 1162,
      "Ġotvore": 1163,
      "rana": 1164,
      "ĠÅ¾ivot": 1165,
      "Ġimaju": 1166,
      "Ġput": 1167,
      "nsko": 1168,
      "Ġregi": 1169,
      "Ġmjese": 1170,
      "Ġke": 1171,
      "mogu": 1172,
      "Ġzagreb": 1173,
      "Ġdvije": 1174,
      "Ġrepubli": 1175,
      "Ġdoma": 1176,
      "Ġdoda": 1177,
      "Ġljuba": 1178,
      "Ġsre": 1179,
      "liza": 1180,
      "Ġgru": 1181,
      "stvu": 1182,
      "Ġuvijek": 1183,
      "Ġneo": 1184,
      "Ġsasta": 1185,
      "Ġlice": 1186,
      "Ġgradi": 1187,
      "Ġposlje": 1188,
      "Å¡u": 1189,
      "laze": 1190,
      "Ġsvako": 1191,
      "Â»": 1192,
      "snije": 1193,
      "sna": 1194,
      "Ġ11": 1195,
      "dae": 1196,
      "Ġsvoju": 1197,
      "dna": 1198,
      "vnim": 1199,
      "jte": 1200,
      "Ġprili": 1201,
      "bje": 1202,
      "Ġoto": 1203,
      "Ġmjesto": 1204,
      "----": 1205,
      "ar": 1206,
      "Ġmaterija": 1207,
      "ss": 1208,
      "Ġponu": 1209,
      "Ġrea": 1210,
      "\".": 1211,
      "il": 1212,
      "Ġfu": 1213,
      "Ġstude": 1214,
      "Å¡Äĩu": 1215,
      "Ġtrenu": 1216,
      "Ġone": 1217,
      "dova": 1218,
      "Äįan": 1219,
      "Ġsigu": 1220,
      "ĠpodruÄįju": 1221,
      "ĠÂ«": 1222,
      "Ġsm": 1223,
      "tio": 1224,
      "sam": 1225,
      "Ġulo": 1226,
      "laz": 1227,
      "Ġpoz": 1228,
      "govor": 1229,
      "vnosti": 1230,
      "Ġpru": 1231,
      "Ġpoduze": 1232,
      "Ġzla": 1233,
      "ven": 1234,
      "lih": 1235,
      "stro": 1236,
      "Ġtje": 1237,
      "Ġ14": 1238,
      "Ġosoba": 1239,
      "ĠneÅ¡to": 1240,
      "meta": 1241,
      "vrÅ¡e": 1242,
      "ÑĢ": 1243,
      "ĠÅ¾eli": 1244,
      "spe": 1245,
      "nio": 1246,
      "Ġkojoj": 1247,
      "gaÄĳa": 1248,
      "Ġkvalite": 1249,
      "Å¡no": 1250,
      "Ġtak": 1251,
      "ĠopÄĩi": 1252,
      "Ġnepo": 1253,
      "ĠÅ¡u": 1254,
      "ps": 1255,
      "Å¡tu": 1256,
      "Ġpokre": 1257,
      "Äįaj": 1258,
      "Ġak": 1259,
      "Ġapa": 1260,
      "Ġradio": 1261,
      "Ġposebno": 1262,
      "Äĳen": 1263,
      "Ġtradi": 1264,
      "Ġputa": 1265,
      "Ġosim": 1266,
      "Ġovog": 1267,
      "Ġiako": 1268,
      "Ġzra": 1269,
      "Ġmno": 1270,
      "dije": 1271,
      "Ġ13": 1272,
      "Ġloka": 1273,
      "tori": 1274,
      "Ġakti": 1275,
      "Ġpreda": 1276,
      "Ġnjih": 1277,
      "Ġbudu": 1278,
      "vodi": 1279,
      "ÄįiÄĩ": 1280,
      "Ġmaj": 1281,
      "Ġameri": 1282,
      "Ġmili": 1283,
      "ns": 1284,
      "Ġobli": 1285,
      "Ġvjero": 1286,
      "rma": 1287,
      "Ġstvar": 1288,
      "Ġposeb": 1289,
      "kata": 1290,
      "Ġgovori": 1291,
      "Ġkonce": 1292,
      "Ġvodi": 1293,
      "ĠmoguÄĩ": 1294,
      "Ġcom": 1295,
      "ĠgraÄĳa": 1296,
      "Ġovoga": 1297,
      "Å¡nja": 1298,
      "grafi": 1299,
      "Ġosigu": 1300,
      "Å¡ke": 1301,
      "vine": 1302,
      "Ġstolje": 1303,
      "10": 1304,
      "mina": 1305,
      "mira": 1306,
      "pak": 1307,
      "pis": 1308,
      "Ġcent": 1309,
      "ck": 1310,
      "ĠÐ": 1311,
      "ĠraÄįu": 1312,
      "Ġnekretnine": 1313,
      "ĠmoÅ¾ete": 1314,
      "dovi": 1315,
      "pr": 1316,
      "Ġnova": 1317,
      "Ġpotpu": 1318,
      "Ġslobo": 1319,
      "Ġbije": 1320,
      "ati": 1321,
      "Ġkru": 1322,
      "Ġgoto": 1323,
      "Ġnajve": 1324,
      "Ġzahtje": 1325,
      "Ġzakona": 1326,
      "Ġunu": 1327,
      "Ġsura": 1328,
      "Ġwe": 1329,
      "gli": 1330,
      "Ġnamje": 1331,
      "mani": 1332,
      "Ġnjezi": 1333,
      "Ġstrane": 1334,
      "Ġbih": 1335,
      "Ġtvrtka": 1336,
      "Ġek": 1337,
      "Ġonda": 1338,
      "Ġizda": 1339,
      "Ġoda": 1340,
      "Ġusta": 1341,
      "Ġvode": 1342,
      "Ġsvaki": 1343,
      "mom": 1344,
      "Ġkrapi": 1345,
      "Ġcje": 1346,
      "Ġorganizira": 1347,
      "Å¾ni": 1348,
      "Ġhrvatska": 1349,
      "Äįkim": 1350,
      "Ġgi": 1351,
      "tum": 1352,
      "ona": 1353,
      "cijama": 1354,
      "dnji": 1355,
      "lnih": 1356,
      "tan": 1357,
      "zima": 1358,
      "mir": 1359,
      "Ġuspo": 1360,
      "pnja": 1361,
      "Ġumjetni": 1362,
      "loga": 1363,
      "Ġkar": 1364,
      "vka": 1365,
      "vÅ¡i": 1366,
      "ĠdogaÄĳa": 1367,
      "Ġ30": 1368,
      "Ġvas": 1369,
      "laga": 1370,
      "viÅ¡e": 1371,
      "vlasni": 1372,
      "Ġdugo": 1373,
      "Ġsmatra": 1374,
      ".)": 1375,
      "Ġzagrebu": 1376,
      "Ġmari": 1377,
      "svi": 1378,
      "uze": 1379,
      "Ġvremena": 1380,
      "dija": 1381,
      "Ġhu": 1382,
      "lovi": 1383,
      "ĠÅ¡a": 1384,
      "Ġraspo": 1385,
      "vor": 1386,
      "Ġmisli": 1387,
      "mena": 1388,
      "ment": 1389,
      "ksi": 1390,
      "Ġsmi": 1391,
      "Ġipak": 1392,
      "12": 1393,
      "Ġple": 1394,
      "vija": 1395,
      "Äįili": 1396,
      "Ġsvim": 1397,
      "slu": 1398,
      "Äįna": 1399,
      "zija": 1400,
      "Ġsud": 1401,
      "Ġhra": 1402,
      "Ġnjega": 1403,
      "ĠÄįita": 1404,
      "Ġsredi": 1405,
      "Ġbole": 1406,
      "Ġstano": 1407,
      "vanjem": 1408,
      "!!": 1409,
      "Ġspli": 1410,
      "Ġbli": 1411,
      "zma": 1412,
      "ranja": 1413,
      "Ġpjes": 1414,
      "plo": 1415,
      "set": 1416,
      "Äįkoj": 1417,
      "Ġuklju": 1418,
      "titi": 1419,
      "Ġsuvlasni": 1420,
      "Ġpisa": 1421,
      "th": 1422,
      "Ġuni": 1423,
      "noga": 1424,
      "Ġpojedi": 1425,
      "Ġelektro": 1426,
      "nca": 1427,
      "tre": 1428,
      "ĠnaÅ¡i": 1429,
      "Ġnaro": 1430,
      "ĠÄįak": 1431,
      "Ġtru": 1432,
      "ĠkaÅ¾e": 1433,
      "Ġnovo": 1434,
      "ĠÅ¾ivota": 1435,
      "Ġstro": 1436,
      "Ġrezu": 1437,
      "Ġpuno": 1438,
      "ĠÅ¾upanije": 1439,
      "nde": 1440,
      "rske": 1441,
      "Ġ25": 1442,
      "ĠsluÅ¾be": 1443,
      "Ġdatum": 1444,
      "Ġeurop": 1445,
      "Ġapart": 1446,
      "nskog": 1447,
      "ĠureÄĳe": 1448,
      "Ġgle": 1449,
      "Å¡Äĩa": 1450,
      "Ġboga": 1451,
      "ĠnaÅ¡": 1452,
      "Ġmeta": 1453,
      "ĠproÅ¡": 1454,
      "Ġpripre": 1455,
      "Ġjako": 1456,
      "nte": 1457,
      "Ġuo": 1458,
      "Ġveliko": 1459,
      "Ġnudi": 1460,
      "ncija": 1461,
      "Ġomogu": 1462,
      "tnih": 1463,
      "Ġostva": 1464,
      "Ġobje": 1465,
      "Ġdrugih": 1466,
      "nko": 1467,
      "ur": 1468,
      "Ġpoku": 1469,
      "Ġvlada": 1470,
      "tora": 1471,
      "jima": 1472,
      "Ġproje": 1473,
      "Ġmladi": 1474,
      "Ġglazbe": 1475,
      "Ġmnogi": 1476,
      "Ġas": 1477,
      "Ġnjegova": 1478,
      "lle": 1479,
      "Ġjoj": 1480,
      "Ġmnogo": 1481,
      "Ġsv": 1482,
      "Ġodje": 1483,
      "ĠneÄĩe": 1484,
      "Ġkasnije": 1485,
      "Ġsavje": 1486,
      "fo": 1487,
      "Ġgro": 1488,
      "Ġodgovara": 1489,
      "prije": 1490,
      "Ġtim": 1491,
      "Ġbor": 1492,
      "njo": 1493,
      "Ġprepo": 1494,
      "ljem": 1495,
      "Ġjednom": 1496,
      "Ġy": 1497,
      "Ġovla": 1498,
      "bije": 1499,
      "ĠkoriÅ¡te": 1500,
      "Ġsudje": 1501,
      "Ġzgra": 1502,
      "Ġener": 1503,
      "Ġgenera": 1504,
      "nskih": 1505,
      "Ġstru": 1506,
      "tije": 1507,
      "Äĳuje": 1508,
      "smo": 1509,
      "Ġvidi": 1510,
      "Äĳenja": 1511,
      "rica": 1512,
      "Ġzabo": 1513,
      "Å¾an": 1514,
      "Ġsklo": 1515,
      "Ġimao": 1516,
      "ld": 1517,
      "vili": 1518,
      "tnost": 1519,
      "tira": 1520,
      "lna": 1521,
      "Ġpromje": 1522,
      "ntro": 1523,
      "Ġpostoji": 1524,
      "vnu": 1525,
      "Ġdoba": 1526,
      "Ġfina": 1527,
      "ly": 1528,
      "miÅ¡": 1529,
      "Ġposti": 1530,
      "bija": 1531,
      "ljivo": 1532,
      "ĠistraÅ¾i": 1533,
      "riti": 1534,
      "Ġprvo": 1535,
      "ĠÅ¾ivoti": 1536,
      "Ġcrk": 1537,
      "Ġupravo": 1538,
      "ÐµÐ": 1539,
      "slo": 1540,
      "Ġnagra": 1541,
      "Ġneke": 1542,
      "mor": 1543,
      "ĠÄįlanka": 1544,
      "Ġpovje": 1545,
      "Ġposlu": 1546,
      "gled": 1547,
      "Äįnih": 1548,
      "ĠpoÄįi": 1549,
      "Äĩem": 1550,
      "Ġtijela": 1551,
      "Ġzo": 1552,
      "Äĩih": 1553,
      "jski": 1554,
      "oj": 1555,
      "Ġprona": 1556,
      "Ġtere": 1557,
      "zije": 1558,
      "Ġvidje": 1559,
      "Ġsim": 1560,
      "ĠknjiÅ¾e": 1561,
      "Ġzat": 1562,
      "Ġrada": 1563,
      "Å¾iti": 1564,
      "Ġkralje": 1565,
      "bnja": 1566,
      "Ġspre": 1567,
      "lizira": 1568,
      "Ġdolazi": 1569,
      "Ġplani": 1570,
      "bm": 1571,
      "rka": 1572,
      "tki": 1573,
      "bom": 1574,
      "ĠÅ¡kole": 1575,
      "ĠoÄįe": 1576,
      "ĠÄįesto": 1577,
      "hvati": 1578,
      "vnik": 1579,
      "Ġkorisni": 1580,
      "Ġpredstavlja": 1581,
      "nska": 1582,
      "ĠÅ¾": 1583,
      "Ġad": 1584,
      "Ġper": 1585,
      "naÄįe": 1586,
      "Ġpresta": 1587,
      "Ġupravlja": 1588,
      "Ġtehno": 1589,
      "qu": 1590,
      "Ġdoku": 1591,
      "Ġrata": 1592,
      "Ġnosi": 1593,
      "jske": 1594,
      "renje": 1595,
      "ĠrijeÄį": 1596,
      "Ġsko": 1597,
      "Ġnjegov": 1598,
      "ĠmeÄĳuna": 1599,
      "ĠpomoÄĩ": 1600,
      "ĠrjeÅ¡e": 1601,
      "Ġit": 1602,
      "njima": 1603,
      "________": 1604,
      "Ġmiliju": 1605,
      "er": 1606,
      "Ġslje": 1607,
      "Ġzato": 1608,
      "Ġzapa": 1609,
      "Ġwi": 1610,
      "vlju": 1611,
      "ww": 1612,
      "Ġrezulta": 1613,
      "Ġslije": 1614,
      "Ġage": 1615,
      "Ġstari": 1616,
      "vnika": 1617,
      "Ġministar": 1618,
      "mbe": 1619,
      "Ġnapra": 1620,
      "Ġprogram": 1621,
      "Ġov": 1622,
      "Äįku": 1623,
      "tek": 1624,
      "Ġtem": 1625,
      "Ġskla": 1626,
      "Ġvrati": 1627,
      "Ġeko": 1628,
      "Ġnjema": 1629,
      "nar": 1630,
      "Ġopa": 1631,
      "Ġuna": 1632,
      "Ġnapo": 1633,
      "Ġele": 1634,
      "sao": 1635,
      "Ġhote": 1636,
      "Ġpogo": 1637,
      "Ġhrvatski": 1638,
      "ĠoÄįi": 1639,
      "Ġmjesta": 1640,
      "lnog": 1641,
      "zni": 1642,
      "Ġskup": 1643,
      "tera": 1644,
      "Ġkolo": 1645,
      "cama": 1646,
      "âĢ¦": 1647,
      "ĠÅ¡kola": 1648,
      "Ġpostoje": 1649,
      "ĠosjeÄĩa": 1650,
      "ndar": 1651,
      "Ġprva": 1652,
      "dam": 1653,
      "ĠpruÅ¾a": 1654,
      "el": 1655,
      "kav": 1656,
      "Ġtime": 1657,
      "Ġkuna": 1658,
      "Ġobitelji": 1659,
      "ĠgraÄĳevin": 1660,
      "ty": 1661,
      "Ġutvr": 1662,
      "rek": 1663,
      "Ġnacional": 1664,
      "vila": 1665,
      "Ġveza": 1666,
      "Ġljud": 1667,
      "18": 1668,
      "ry": 1669,
      "vesti": 1670,
      "nuo": 1671,
      "gije": 1672,
      "Ġdruga": 1673,
      "som": 1674,
      "Ġgotovo": 1675,
      "klu": 1676,
      "Ġuda": 1677,
      "Ġnove": 1678,
      "zem": 1679,
      "dnosti": 1680,
      "tkom": 1681,
      "kama": 1682,
      "pisi": 1683,
      "Ġcar": 1684,
      "Äįio": 1685,
      "Ġstje": 1686,
      "Ġindu": 1687,
      "teta": 1688,
      "Ġkate": 1689,
      "Ġ.": 1690,
      "Ġsusre": 1691,
      "pisu": 1692,
      "Ġobilje": 1693,
      "jna": 1694,
      "Ġudruga": 1695,
      "Ġkomenta": 1696,
      "piti": 1697,
      "ĠrazliÄįi": 1698,
      "Ġogra": 1699,
      "Ġum": 1700,
      "tiri": 1701,
      "dina": 1702,
      "Äįar": 1703,
      "Ġniti": 1704,
      "Ġisku": 1705,
      "Ġsamosta": 1706,
      "Ġpoput": 1707,
      "Ġfotografi": 1708,
      "vra": 1709,
      "net": 1710,
      "Ġtko": 1711,
      "ture": 1712,
      "Ġrekao": 1713,
      "Ġdubro": 1714,
      "ĠtrÅ¾i": 1715,
      "kazu": 1716,
      "drÅ¾a": 1717,
      "taka": 1718,
      "vod": 1719,
      "Ġneu": 1720,
      "pusti": 1721,
      "Ġkraju": 1722,
      "tica": 1723,
      "Ġotkri": 1724,
      "kli": 1725,
      "Ġpoma": 1726,
      "Å¡ava": 1727,
      "ĠdruÅ¡tvo": 1728,
      "Ġspecija": 1729,
      "renja": 1730,
      "mana": 1731,
      "Ġosobi": 1732,
      "Ġibm": 1733,
      "Ġkojeg": 1734,
      "Ġbude": 1735,
      "jemo": 1736,
      "rava": 1737,
      "nike": 1738,
      "Å¾da": 1739,
      "Å¾enje": 1740,
      "Ġobve": 1741,
      "ĠÅ¾elje": 1742,
      "Ġusluge": 1743,
      "Ġpli": 1744,
      "ĠdruÅ¡tve": 1745,
      "blja": 1746,
      "Ġ[": 1747,
      "ĠÄįini": 1748,
      "Ġknjiga": 1749,
      "kar": 1750,
      "stitu": 1751,
      "Ġdjelu": 1752,
      "nicu": 1753,
      "tog": 1754,
      "bama": 1755,
      "rvi": 1756,
      "Ġnatjeca": 1757,
      "Ġprve": 1758,
      "Ġokru": 1759,
      "Ġivan": 1760,
      "rao": 1761,
      "tua": 1762,
      "....": 1763,
      "Ġrodi": 1764,
      "Ġosobe": 1765,
      "laza": 1766,
      "Ġtran": 1767,
      "Ġjosi": 1768,
      "ĠrijeÄįi": 1769,
      "ĠsluÄįaju": 1770,
      "Ġ/": 1771,
      "tere": 1772,
      "Ġam": 1773,
      "Ġpriva": 1774,
      "Äĳena": 1775,
      "Ġvrsta": 1776,
      "cje": 1777,
      "Äįnim": 1778,
      "ĠvaÅ¡e": 1779,
      "ĠdruÅ¡tva": 1780,
      "raju": 1781,
      "lar": 1782,
      "Ġdalje": 1783,
      "Ġsvijetu": 1784,
      "Ġoku": 1785,
      "ĠÅ¾a": 1786,
      "Ġnedo": 1787,
      "boj": 1788,
      "11": 1789,
      "zda": 1790,
      "ĠÄįetiri": 1791,
      "Ġjednosta": 1792,
      "Ġunutar": 1793,
      "cijom": 1794,
      "Ġtamo": 1795,
      "Ġcu": 1796,
      "Ġana": 1797,
      "Ġdrugim": 1798,
      "rd": 1799,
      "Ġobavlja": 1800,
      "Ġznanstve": 1801,
      "Ġsvijeta": 1802,
      "Ġovi": 1803,
      "30": 1804,
      "Ġposlije": 1805,
      "Ġpet": 1806,
      "struk": 1807,
      "liÄĩ": 1808,
      "Ġispo": 1809,
      "Ġradova": 1810,
      "nove": 1811,
      "Ġprofe": 1812,
      "Ġbol": 1813,
      "Ġobitelj": 1814,
      "ĠstoljeÄĩa": 1815,
      "am": 1816,
      "ljo": 1817,
      "Ġ21": 1818,
      "Ġgospodar": 1819,
      "Ġrepublike": 1820,
      "tnim": 1821,
      "tova": 1822,
      "Ġkata": 1823,
      "ĠvaÅ¾": 1824,
      "Ġhrvatskog": 1825,
      "knji": 1826,
      "voji": 1827,
      "Ġkomu": 1828,
      "tura": 1829,
      "Ġtele": 1830,
      "bio": 1831,
      "Ġgodinu": 1832,
      "ĠpovrÅ¡i": 1833,
      "||.": 1834,
      "Ġovdje": 1835,
      "che": 1836,
      "Ġkontro": 1837,
      "ĠmoÅ¾da": 1838,
      "Ġniko": 1839,
      "ĠpodruÄįja": 1840,
      "ĠzapreÅ¡iÄĩ": 1841,
      "Ġmilijuna": 1842,
      "nskom": 1843,
      "Ġutjeca": 1844,
      "lice": 1845,
      "Ġ194": 1846,
      "Ġ2004": 1847,
      "sle": 1848,
      "Ġpona": 1849,
      "ndo": 1850,
      "stala": 1851,
      "Ġmanje": 1852,
      "jeva": 1853,
      "Ġnara": 1854,
      "Ġnaja": 1855,
      "Ġizgrad": 1856,
      "ĠniÅ¡ta": 1857,
      "Ġsljede": 1858,
      "mlje": 1859,
      "Ġzavr": 1860,
      "ĠdoÅ¡": 1861,
      "Ġdosta": 1862,
      "skoga": 1863,
      "Ġvozi": 1864,
      "Ġx": 1865,
      "Ġpolo": 1866,
      "Ġsvog": 1867,
      "Ġcrkve": 1868,
      "Ġovom": 1869,
      "Ġugovo": 1870,
      "Ġkoliko": 1871,
      "Ġproce": 1872,
      "Ġmjestu": 1873,
      "Ġcenta": 1874,
      "zor": 1875,
      "Äįnog": 1876,
      "liti": 1877,
      "Ġfrancu": 1878,
      "tnog": 1879,
      "Ġgps": 1880,
      "znati": 1881,
      "rce": 1882,
      "Ġugo": 1883,
      "Ġcre": 1884,
      "ĠÑĥ": 1885,
      "var": 1886,
      "uredi": 1887,
      "Ġzbi": 1888,
      "Ġobu": 1889,
      "pera": 1890,
      "ny": 1891,
      "lit": 1892,
      "Ġkraj": 1893,
      "Ġspome": 1894,
      "sviba": 1895,
      "nicima": 1896,
      "Ġsustava": 1897,
      "Ð°Ð": 1898,
      "riÄĩ": 1899,
      "Ġzlo": 1900,
      "Å¡tvo": 1901,
      "Å¡tva": 1902,
      "Ġcentra": 1903,
      "Ġzajedno": 1904,
      "Äįenje": 1905,
      "Ġtog": 1906,
      "Ġosni": 1907,
      "Ġsvom": 1908,
      "Ġautor": 1909,
      "nga": 1910,
      "Ġkli": 1911,
      "gom": 1912,
      "Äįina": 1913,
      "Ġnjima": 1914,
      "sr": 1915,
      "vca": 1916,
      "Ġbavi": 1917,
      "dnost": 1918,
      "Ġskupi": 1919,
      "Ġkomentar": 1920,
      "ĠÄĳu": 1921,
      "Ġsezo": 1922,
      "ĠpriÄįa": 1923,
      "Ġ24": 1924,
      "Ġlisto": 1925,
      "Ġposla": 1926,
      "Ġtisu": 1927,
      "ĠznaÄįi": 1928,
      "Ġtehni": 1929,
      "Ġprojekti": 1930,
      "Ġdne": 1931,
      "Ġuko": 1932,
      "Ġpokaza": 1933,
      "Ġkoli": 1934,
      "Ġneza": 1935,
      "menti": 1936,
      "nicama": 1937,
      "chi": 1938,
      "nÄįa": 1939,
      "Ð¾Ð": 1940,
      "hvaÄĩa": 1941,
      "Ġfunk": 1942,
      "Ġpripada": 1943,
      "Ġsvijet": 1944,
      "noviÄĩ": 1945,
      "Ġzakon": 1946,
      "stvom": 1947,
      "Ġgor": 1948,
      "vnost": 1949,
      "Ġsjedi": 1950,
      "Ġinformacije": 1951,
      "tt": 1952,
      "nad": 1953,
      "Ġukup": 1954,
      "riji": 1955,
      "Ġtemelju": 1956,
      "Ġcommo": 1957,
      "hr": 1958,
      "Ġpoe": 1959,
      "cio": 1960,
      "Ġgod": 1961,
      "Ġjednog": 1962,
      "ĠpoveÄĩa": 1963,
      "Ġfinanci": 1964,
      "rice": 1965,
      "Ġsvojoj": 1966,
      "nke": 1967,
      "Ġodma": 1968,
      "per": 1969,
      "Ġgleda": 1970,
      "dnje": 1971,
      "rali": 1972,
      "Ġutak": 1973,
      "Ġobrt": 1974,
      "Ġsport": 1975,
      "ĠmeÄĳutim": 1976,
      "Ġdijelu": 1977,
      "ĠureÄĳa": 1978,
      "Ġfilm": 1979,
      "kro": 1980,
      "Ġ#": 1981,
      "mar": 1982,
      "Ġpone": 1983,
      "Ġat": 1984,
      "Å¾io": 1985,
      "Ġkojim": 1986,
      "ĠÄĩemo": 1987,
      "Ġposve": 1988,
      "Ġalbu": 1989,
      "Ġutakmi": 1990,
      "glo": 1991,
      "gnu": 1992,
      "reda": 1993,
      "tual": 1994,
      "Ġvrste": 1995,
      "Ġdijela": 1996,
      "Ġzahva": 1997,
      "15": 1998,
      "br": 1999,
      "ĠÅ¡te": 2000,
      "Ġtih": 2001,
      "lnim": 2002,
      "rane": 2003,
      "Å¡ku": 2004,
      "Ġradni": 2005,
      "ĠveÄįe": 2006,
      "Ġrazvoj": 2007,
      "Ġintere": 2008,
      "Ġtehnologi": 2009,
      "ime": 2010,
      "Ġ22": 2011,
      "ĠkuÄĩa": 2012,
      "Ġ198": 2013,
      "zno": 2014,
      "tem": 2015,
      "Ġzado": 2016,
      "Ġradu": 2017,
      "bina": 2018,
      "pio": 2019,
      "Ġwa": 2020,
      "Ġknjige": 2021,
      "Ġobrazo": 2022,
      "ĠizloÅ¾ba": 2023,
      "Ġvrata": 2024,
      "od": 2025,
      "Ġzatim": 2026,
      "Ġnjemu": 2027,
      "Å¡taj": 2028,
      "Ġzemlje": 2029,
      "Ġmuzej": 2030,
      "Ġozna": 2031,
      "Äįine": 2032,
      "Äĩeg": 2033,
      "san": 2034,
      "Ġgale": 2035,
      "Ġvelike": 2036,
      "voljno": 2037,
      "kna": 2038,
      "raÅ¾": 2039,
      "Ġglu": 2040,
      "son": 2041,
      "gh": 2042,
      "Ġupu": 2043,
      "Ġpogleda": 2044,
      "Ġsebe": 2045,
      "Ġstavka": 2046,
      "Ġispu": 2047,
      "Ġsvaka": 2048,
      "ĠdrÅ¾ava": 2049,
      "njom": 2050,
      "Ġdomo": 2051,
      "Å¡ten": 2052,
      "vnoj": 2053,
      "Ġokoli": 2054,
      "Ġpredsjednik": 2055,
      "Ġoz": 2056,
      "sije": 2057,
      "zam": 2058,
      "Ġtur": 2059,
      ".[": 2060,
      "Ġodred": 2061,
      "stava": 2062,
      "ĠteÅ¡ko": 2063,
      "Ġimati": 2064,
      "ĠÄĩu": 2065,
      "Ġii": 2066,
      "Ġmr": 2067,
      "Ġmre": 2068,
      "Ġbit": 2069,
      "Ġinstitu": 2070,
      "Ġpotreb": 2071,
      "rala": 2072,
      "Ġobo": 2073,
      "Ġporu": 2074,
      "teri": 2075,
      "Ġkojih": 2076,
      "njoj": 2077,
      "tski": 2078,
      "Ġmogao": 2079,
      "Ġnisam": 2080,
      "Ġduho": 2081,
      "ĠÄįinje": 2082,
      "ĠÄįlan": 2083,
      "ĠzemljiÅ¡": 2084,
      "miÅ¡lja": 2085,
      "Ġcentar": 2086,
      "Ġdopu": 2087,
      "dese": 2088,
      "Ġsvega": 2089,
      "Ġanti": 2090,
      "Ġkm": 2091,
      "Ġprostor": 2092,
      "snih": 2093,
      "tih": 2094,
      "lio": 2095,
      "jan": 2096,
      "Ġpostup": 2097,
      "Ġpristup": 2098,
      "Ġispra": 2099,
      "Ġopet": 2100,
      "Å¾be": 2101,
      "Äĳeni": 2102,
      "Ġ23": 2103,
      "Ġbar": 2104,
      "Ġnr": 2105,
      "Ġnajbolji": 2106,
      "Ġl": 2107,
      "loÅ¾e": 2108,
      "Ġbisku": 2109,
      "der": 2110,
      "Ġvrijednosti": 2111,
      "ÑĢÐµÐ": 2112,
      "us": 2113,
      "Ġista": 2114,
      "Ġbile": 2115,
      "ĠkuÄĩe": 2116,
      "Ġcreati": 2117,
      "tr": 2118,
      "Ġkak": 2119,
      "Ġhla": 2120,
      "ĠÄĩete": 2121,
      "ĠpomoÄĩi": 2122,
      "vci": 2123,
      "´Ð¸": 2124,
      "nac": 2125,
      "Ġugla": 2126,
      "Ġupisa": 2127,
      "Ġizvje": 2128,
      "Ġvisoko": 2129,
      "ĠÄįovjek": 2130,
      "Ġukoliko": 2131,
      "plje": 2132,
      "ĠdoÅ¾i": 2133,
      "Äįenja": 2134,
      "pred": 2135,
      "Ġjedne": 2136,
      "the": 2137,
      "Ġnase": 2138,
      "ved": 2139,
      "Ġgrado": 2140,
      "Ġnjegove": 2141,
      "kuplja": 2142,
      "rac": 2143,
      "loÅ¡ki": 2144,
      "Ġodgovo": 2145,
      "ĠduÅ¾": 2146,
      "Ġzakonom": 2147,
      "Ġpoveza": 2148,
      "Ġusposta": 2149,
      "Ġtempera": 2150,
      "tnu": 2151,
      "rem": 2152,
      "Ġizbo": 2153,
      "pravo": 2154,
      "mijenje": 2155,
      "--------": 2156,
      "Ġcommons": 2157,
      "Ġnau": 2158,
      "ton": 2159,
      "Ġupora": 2160,
      "niÄĩ": 2161,
      "ĠuÅ¾i": 2162,
      "Ġodre": 2163,
      "Ġrazdo": 2164,
      "ĠsveÄįa": 2165,
      "Ġturisti": 2166,
      "ĠzapoÄįe": 2167,
      "dro": 2168,
      "Ġdal": 2169,
      "Ġter": 2170,
      "mini": 2171,
      "Ġrazu": 2172,
      "Å¡iÄĩa": 2173,
      "Ġvrhu": 2174,
      "Ġproizvoda": 2175,
      "Ġprostora": 2176,
      "Ġfesti": 2177,
      "Ġzdrav": 2178,
      "Ġmaterijala": 2179,
      "Ġcreative": 2180,
      "vica": 2181,
      "tet": 2182,
      "telje": 2183,
      "Ġcha": 2184,
      "Ġpotvr": 2185,
      "Ġtvrtke": 2186,
      "Ġzahtije": 2187,
      "Ġpozdra": 2188,
      "jno": 2189,
      "ut": 2190,
      "Äįnu": 2191,
      "Äįnom": 2192,
      "Ġpobje": 2193,
      "ĠzaloÅ¾": 2194,
      "Ġkaza": 2195,
      "Ġkarak": 2196,
      "Ġizvr": 2197,
      "Ġevo": 2198,
      "Ġgradu": 2199,
      "Ġsvojih": 2200,
      "Ġopera": 2201,
      "lli": 2202,
      "toli": 2203,
      "Ġsuvreme": 2204,
      "Ġprizna": 2205,
      "panj": 2206,
      "bar": 2207,
      "Ġdiza": 2208,
      "ĠvaraÅ¾": 2209,
      "ĠraÄįuna": 2210,
      "en": 2211,
      "jka": 2212,
      "Ġsami": 2213,
      "Ġizgra": 2214,
      "Ġsveu": 2215,
      "sob": 2216,
      "ĠÄįetvr": 2217,
      "slav": 2218,
      ".||": 2219,
      "50": 2220,
      "Ġzanim": 2221,
      "Ġzamje": 2222,
      "Ġizbor": 2223,
      "stima": 2224,
      "ĠdjeÄį": 2225,
      "Ġuzro": 2226,
      "Ġpotrebno": 2227,
      "ĠmoguÄĩnosti": 2228,
      "jskih": 2229,
      "Ġovu": 2230,
      "line": 2231,
      "Ġzagor": 2232,
      "Ġminu": 2233,
      "Ġsitua": 2234,
      "Ġtradicional": 2235,
      "ĠpoÄįinje": 2236,
      "20": 2237,
      "bre": 2238,
      "Ġsvr": 2239,
      "nata": 2240,
      "Ġoti": 2241,
      "voje": 2242,
      "Ġglo": 2243,
      "kul": 2244,
      "Ġmir": 2245,
      "Äĩuje": 2246,
      "Ġdjelatnosti": 2247,
      "Ġudruge": 2248,
      "14": 2249,
      "es": 2250,
      "gro": 2251,
      "zne": 2252,
      "Ġsave": 2253,
      "Ġisklju": 2254,
      "ĠmoguÄĩe": 2255,
      "Ġmedici": 2256,
      "Ġnajbolje": 2257,
      "op": 2258,
      "Ġstaro": 2259,
      "Ġsvibnja": 2260,
      "Ġtraja": 2261,
      "ĠÂ»": 2262,
      "ĠizloÅ¾be": 2263,
      "Ġstanovni": 2264,
      "Ġuglavnom": 2265,
      "Ġbre": 2266,
      "mer": 2267,
      "Ġmagi": 2268,
      "Ġpostoja": 2269,
      "Ġkulture": 2270,
      "ĠvlasniÅ¡tva": 2271,
      "Å¾ne": 2272,
      "Ġsek": 2273,
      "Ġizvan": 2274,
      "ĠreÄĩi": 2275,
      "Ġtalija": 2276,
      "Ġdirek": 2277,
      "Ġtijelo": 2278,
      "ĠukljuÄįu": 2279,
      "din": 2280,
      "Ġizja": 2281,
      "Ġ28": 2282,
      "Ġpara": 2283,
      "Ġimala": 2284,
      "Ġsudjelo": 2285,
      "ok": 2286,
      "Ġsuda": 2287,
      "Ġtema": 2288,
      "Ġusluga": 2289,
      "vac": 2290,
      "lost": 2291,
      "Ġaf": 2292,
      "Ġsate": 2293,
      "misli": 2294,
      "Ġobzi": 2295,
      "Ġputem": 2296,
      "Ġimali": 2297,
      "Ġdemo": 2298,
      "fika": 2299,
      "Ġpotpuno": 2300,
      "vid": 2301,
      "Ġodra": 2302,
      "tnika": 2303,
      "ĠmoÅ¾emo": 2304,
      "vljen": 2305,
      "Ġumjetnosti": 2306,
      "lica": 2307,
      "Ġgre": 2308,
      "Ġputo": 2309,
      "Ġ40": 2310,
      "ĠdrÅ¾ave": 2311,
      "ft": 2312,
      "is": 2313,
      "rÅ¾i": 2314,
      "snog": 2315,
      "kov": 2316,
      "ĠÅ¡ta": 2317,
      "Ġeng": 2318,
      "Ġpis": 2319,
      "Ġdjelatnost": 2320,
      "Ġograni": 2321,
      "Ġnapa": 2322,
      "Ġglavni": 2323,
      "Ġkoriste": 2324,
      "Ġodmah": 2325,
      "Ġnakna": 2326,
      "Ġfra": 2327,
      "Ġpart": 2328,
      "Ġrazvo": 2329,
      "Ġsmije": 2330,
      "Ġzaklju": 2331,
      "ĠmoÄĩi": 2332,
      "ban": 2333,
      "ĠbaÅ¡": 2334,
      "vljena": 2335,
      "vlji": 2336,
      "Ġdija": 2337,
      "ĠÅ¡kol": 2338,
      "Ġ50": 2339,
      "Ġslika": 2340,
      "Ġnada": 2341,
      "Ġvisi": 2342,
      "Ġmeto": 2343,
      "Å¡tine": 2344,
      "Ġvlasnik": 2345,
      "Ġprilikom": 2346,
      "razu": 2347,
      "Ġkor": 2348,
      "love": 2349,
      "Ġvatro": 2350,
      "Ġproizvodi": 2351,
      "Ġmlade": 2352,
      "Ġodu": 2353,
      "Ġvide": 2354,
      "Ġpubli": 2355,
      "ĠrazliÄįiti": 2356,
      "gri": 2357,
      "lnik": 2358,
      "vaja": 2359,
      "Ġpola": 2360,
      "Ġnavi": 2361,
      "Ġkona": 2362,
      "Ġrazi": 2363,
      "kuje": 2364,
      "Ġstandar": 2365,
      "Ġhrvatskih": 2366,
      "ĠznaÄįaj": 2367,
      "Ġklasi": 2368,
      "17": 2369,
      "Ġnama": 2370,
      "Ġizmje": 2371,
      "Äĳeno": 2372,
      "ĠsadrÅ¾aj": 2373,
      "ÑĢÐµÐ´Ð¸": 2374,
      "16": 2375,
      "gdje": 2376,
      "Ġtj": 2377,
      "Ġkame": 2378,
      "Ġ26": 2379,
      "Ġbes": 2380,
      "ĠÅ¡iro": 2381,
      "Ġprograma": 2382,
      "lla": 2383,
      "Ġisu": 2384,
      "rano": 2385,
      "Ġnapisa": 2386,
      "Ġnarod": 2387,
      "Ġjeze": 2388,
      "Ġmali": 2389,
      "Ġtoliko": 2390,
      "Ġex": 2391,
      "ĠkuÄĩi": 2392,
      "Ġdjece": 2393,
      "Ġzele": 2394,
      "Ġisko": 2395,
      "Ġpote": 2396,
      "Ġmije": 2397,
      "Ġsije": 2398,
      "Ġ197": 2399,
      "Ġkrapinsko": 2400,
      "ĠÑĥÑĢÐµÐ´Ð¸": 2401,
      "dnom": 2402,
      "Ġuvo": 2403,
      "Ġnalaze": 2404,
      "Ġnedje": 2405,
      "Ġcon": 2406,
      "Ġjednu": 2407,
      "ĠsveuÄįili": 2408,
      ".\"": 2409,
      "cha": 2410,
      "Ġpore": 2411,
      "Ġodli": 2412,
      "Ġdis": 2413,
      "Ġvelika": 2414,
      "Ġcrve": 2415,
      "Å¡njeg": 2416,
      "Ġukra": 2417,
      "Ġnaru": 2418,
      "lov": 2419,
      "Äįica": 2420,
      "Ġlipnja": 2421,
      "ĠÅ¾ena": 2422,
      "Ġpostaje": 2423,
      "Å¡noknji": 2424,
      "Ġbrani": 2425,
      "Ġzapravo": 2426,
      "Ġmale": 2427,
      "pita": 2428,
      "Ġbolje": 2429,
      "Ġvanj": 2430,
      "Ġkraja": 2431,
      "Ġcilj": 2432,
      "Ġdobio": 2433,
      "Ġponovno": 2434,
      "Ġsplit": 2435,
      "Ġobjekata": 2436,
      "ĠpokuÅ¡a": 2437,
      "Ġsimbo": 2438,
      "tac": 2439,
      "nese": 2440,
      "ted": 2441,
      "ĠzaÅ¡to": 2442,
      "stre": 2443,
      "Ġprisu": 2444,
      "Ġfizi": 2445,
      "Ġjugo": 2446,
      "Ġfakul": 2447,
      "priv": 2448,
      "âĢľ,": 2449,
      "Ġsustav": 2450,
      "ÑĤ": 2451,
      "dili": 2452,
      "sija": 2453,
      "Ġhrvatsku": 2454,
      "dnoj": 2455,
      "ĠzemljiÅ¡noknji": 2456,
      "Ġljubav": 2457,
      "Ġsklopu": 2458,
      "tnom": 2459,
      "Ġservi": 2460,
      "Ġprima": 2461,
      "Ġfri": 2462,
      "Ġmene": 2463,
      "ĠnajviÅ¡e": 2464,
      "ĠzaÅ¡tite": 2465,
      "Ġsigurno": 2466,
      "',": 2467,
      "jska": 2468,
      "Ġ...": 2469,
      "Ġgri": 2470,
      "Ġizgu": 2471,
      "Ġred": 2472,
      "Ġdeta": 2473,
      "Ġosob": 2474,
      "Ġnadle": 2475,
      "Ġpovijesti": 2476,
      "Ġsmrti": 2477,
      "ya": 2478,
      "veli": 2479,
      "losti": 2480,
      "Ġsasto": 2481,
      "Äĩim": 2482,
      "Ġslavo": 2483,
      "teljima": 2484,
      "Ġvidjeti": 2485,
      "kazuje": 2486,
      "ex": 2487,
      "kad": 2488,
      "Ġsutra": 2489,
      "Ġprosla": 2490,
      "pan": 2491,
      "Ġepi": 2492,
      "Ġ196": 2493,
      "Ġsce": 2494,
      "Ġsjedni": 2495,
      "Ġdina": 2496,
      "Ġznam": 2497,
      "ĠtraÅ¾i": 2498,
      "cijske": 2499,
      "Ġpopula": 2500,
      "Ġopreme": 2501,
      "Ġmuzeja": 2502,
      "Ġkatego": 2503,
      "13": 2504,
      "dnih": 2505,
      "ĠnaÅ¡a": 2506,
      "Ġnagla": 2507,
      "Ġjela": 2508,
      "zagor": 2509,
      "ĠanÄĳe": 2510,
      "Ġpjesni": 2511,
      "Ġizvor": 2512,
      "jskog": 2513,
      "snu": 2514,
      "Ġpoljo": 2515,
      "vinu": 2516,
      "Ġmogli": 2517,
      "feren": 2518,
      "Ġindustri": 2519,
      "Ġprimi": 2520,
      "Ġeki": 2521,
      "Ġredu": 2522,
      "Ġprijevo": 2523,
      "Ġrijeke": 2524,
      "Ġ2012": 2525,
      "ĠmoguÄĩnost": 2526,
      "dnja": 2527,
      "Ġzvu": 2528,
      "Ġver": 2529,
      "Ġpsi": 2530,
      "kove": 2531,
      "tin": 2532,
      "Ġpolu": 2533,
      "Ġprodu": 2534,
      "Ġresto": 2535,
      "Ġnajpo": 2536,
      "Ġvjeru": 2537,
      "Ġrim": 2538,
      "Ġpostao": 2539,
      "Ġosnovana": 2540,
      "ĠvlasniÅ¡tvo": 2541,
      "vani": 2542,
      "lina": 2543,
      "Ġdaje": 2544,
      "Ġprosi": 2545,
      "Ġ27": 2546,
      "Ġboja": 2547,
      "Ġapartmani": 2548,
      "nati": 2549,
      "raz": 2550,
      "Ġzau": 2551,
      "Ġdola": 2552,
      "Ġprigo": 2553,
      "Ġmor": 2554,
      "pira": 2555,
      "âĢĿ,": 2556,
      "Ġbolesti": 2557,
      "Ġhotel": 2558,
      "tovi": 2559,
      "Ġprovo": 2560,
      "ljena": 2561,
      "Äįak": 2562,
      "Äĳene": 2563,
      "njuje": 2564,
      "Ġdeset": 2565,
      "Ġokvi": 2566,
      "svibanja": 2567,
      "Ġpreh": 2568,
      "ljen": 2569,
      "Äĩeni": 2570,
      "Ġindi": 2571,
      "ĠÅ¾ivi": 2572,
      "lnom": 2573,
      "kade": 2574,
      "Ġkole": 2575,
      "Ġsubo": 2576,
      "Ġpripa": 2577,
      "Ġ29": 2578,
      "Ġostalih": 2579,
      "fere": 2580,
      "Ġsvjedo": 2581,
      "Ġaktivnosti": 2582,
      "~~": 2583,
      "tiÄĩ": 2584,
      "nos": 2585,
      "Ġsebi": 2586,
      "Ġrade": 2587,
      "mija": 2588,
      "ber": 2589,
      "Ġljude": 2590,
      "Ġstoga": 2591,
      "Ġzemlja": 2592,
      "Ġnjihove": 2593,
      "ali": 2594,
      "naca": 2595,
      "manje": 2596,
      "rova": 2597,
      "Ġnew": 2598,
      "bili": 2599,
      "graf": 2600,
      "Ġciklu": 2601,
      "Ġuprave": 2602,
      "ĠpoÄįetkom": 2603,
      "Ġ2010": 2604,
      "ĠodreÄĳeno": 2605,
      "rena": 2606,
      "Ġbje": 2607,
      "Ġkatoli": 2608,
      "Ġprila": 2609,
      "Ġteo": 2610,
      "dov": 2611,
      "ĠpodruÄįje": 2612,
      "ĠzaÅ¡titu": 2613,
      "Ġjezik": 2614,
      "ĠÄįovjeka": 2615,
      "Ġproblem": 2616,
      "2012": 2617,
      "ĠÅ¾ivotinja": 2618,
      "07": 2619,
      "sh": 2620,
      "Ġonih": 2621,
      "tine": 2622,
      "gar": 2623,
      "Ġprirod": 2624,
      "Å¾en": 2625,
      "ĠpoduzeÄĩe": 2626,
      "ĠpoloÅ¾a": 2627,
      "lnu": 2628,
      "Ġ100": 2629,
      "Ġfre": 2630,
      "Ġvele": 2631,
      "Ġnovina": 2632,
      "Ġjavne": 2633,
      "dnik": 2634,
      "Ġiste": 2635,
      "zom": 2636,
      "Ġrh": 2637,
      "2008": 2638,
      "Ġarhiv": 2639,
      "Ġprojekt": 2640,
      "Ġoru": 2641,
      "Ġzaba": 2642,
      "Äĩima": 2643,
      "Ġoptu": 2644,
      "Ġgeo": 2645,
      "09": 2646,
      "lti": 2647,
      "Ġpobo": 2648,
      "Ġposao": 2649,
      "Ġpromo": 2650,
      "Äįita": 2651,
      "Ġljubi": 2652,
      "cijski": 2653,
      "Ġ2011": 2654,
      "Ġbrzi": 2655,
      "Ġitd": 2656,
      "Ġvatroga": 2657,
      ".-": 2658,
      "Ġzada": 2659,
      "nogra": 2660,
      "Ġnovih": 2661,
      "ĠproizvoÄĳa": 2662,
      "Ġposjeti": 2663,
      "ĠtroÅ¡ko": 2664,
      "Ġpodataka": 2665,
      "lazak": 2666,
      "Ġlistopada": 2667,
      "Ġpoljopriv": 2668,
      "Ġnavede": 2669,
      "Ġkara": 2670,
      "sima": 2671,
      "dove": 2672,
      "Ġ2009": 2673,
      "ĠkrÅ¡Äĩa": 2674,
      "ĠÅ¾upani": 2675,
      "tlji": 2676,
      "xx": 2677,
      "laÅ¾e": 2678,
      "ĠzavrÅ¡i": 2679,
      "Ġkojom": 2680,
      "Ġostale": 2681,
      "Ġsrpnja": 2682,
      "jni": 2683,
      "svje": 2684,
      "vale": 2685,
      "dana": 2686,
      "Ġizgleda": 2687,
      "pom": 2688,
      "Ġreli": 2689,
      "Ġoslo": 2690,
      "Ġnjegovo": 2691,
      "Ġblago": 2692,
      "ista": 2693,
      "ĠnaÄĩi": 2694,
      "ĠproÅ¡i": 2695,
      "bila": 2696,
      "Ġvladi": 2697,
      "Äĳuju": 2698,
      "Ġnjegovu": 2699,
      "Ġprijam": 2700,
      "Ġpovijest": 2701,
      "ĠmeÄĳunarod": 2702,
      "ĠrjeÅ¡enja": 2703,
      "nskim": 2704,
      "oni": 2705,
      "ssi": 2706,
      "Ġdale": 2707,
      "Ġtera": 2708,
      "ĠboÅ¾": 2709,
      "Ġprvom": 2710,
      "Ġinformacija": 2711,
      "Ġsigur": 2712,
      "sve": 2713,
      "zv": 2714,
      "zvo": 2715,
      "Ġj": 2716,
      "ĠinaÄįe": 2717,
      "Ġdakle": 2718,
      "Ġsazna": 2719,
      "Ġvelja": 2720,
      "Ġgodini": 2721,
      "ĠgraÄĳevi": 2722,
      "ĠveÄĩina": 2723,
      "Ġpovo": 2724,
      "Ġinstala": 2725,
      "ĠÄįega": 2726,
      "Ġklub": 2727,
      "ĠrazliÄįitih": 2728,
      "28": 2729,
      "snosti": 2730,
      "Ġpodi": 2731,
      "Ġnatje": 2732,
      "Å¾bi": 2733,
      "Ġmlije": 2734,
      "Ġap": 2735,
      "Ġklju": 2736,
      "Ġdonosi": 2737,
      "dnika": 2738,
      "Ġdjevoj": 2739,
      "Ġriba": 2740,
      "ĠpoÄįetka": 2741,
      "Ġbrzo": 2742,
      "we": 2743,
      "Ñĥ": 2744,
      "Äįeno": 2745,
      "Ġreda": 2746,
      "Ġnovog": 2747,
      "Ġluka": 2748,
      "vano": 2749,
      "Ġpogla": 2750,
      "Ġizne": 2751,
      "Ġmoje": 2752,
      "Ġtomi": 2753,
      "pije": 2754,
      "Ġjavno": 2755,
      "Ġmoraju": 2756,
      "Ġkoristiti": 2757,
      "Ġjezika": 2758,
      "Ġtrgova": 2759,
      "Ġdokumenta": 2760,
      "Ġosobito": 2761,
      "Å¾ba": 2762,
      "Ġdogodi": 2763,
      "Ġsvima": 2764,
      "ĠÅ¾ene": 2765,
      "ĠgraÄĳevina": 2766,
      "Ġdrugog": 2767,
      "Ġnikad": 2768,
      "Ġnudimo": 2769,
      "Ġdjeluje": 2770,
      "snim": 2771,
      "Ġpromet": 2772,
      "gan": 2773,
      "Ġrekla": 2774,
      "Ġvlade": 2775,
      "ĠÄįlanovi": 2776,
      "Ġovoj": 2777,
      "Ġnjihova": 2778,
      "Ġdrve": 2779,
      "Ġupozna": 2780,
      "ĠvlasniÅ¡tvu": 2781,
      "Ġpretho": 2782,
      "02": 2783,
      "ĠoÅ¾u": 2784,
      "vite": 2785,
      "Ġbog": 2786,
      "Ġvozila": 2787,
      "ad": 2788,
      "mna": 2789,
      "Ġski": 2790,
      "Ġita": 2791,
      "koviÄĩ": 2792,
      "liÅ¡ta": 2793,
      "roma": 2794,
      "veo": 2795,
      "dila": 2796,
      "Ġprogla": 2797,
      "ljeno": 2798,
      "vijesti": 2799,
      "Ġbal": 2800,
      "Ġroma": 2801,
      "Ġtraje": 2802,
      "ĠÅ¾ivotu": 2803,
      "Ġstudi": 2804,
      "vremeno": 2805,
      "Ġmnoge": 2806,
      "Ġengle": 2807,
      "'s": 2808,
      "Å¡li": 2809,
      "viÄĩa": 2810,
      "Ġby": 2811,
      "Ġala": 2812,
      "Ġkandi": 2813,
      "govara": 2814,
      "Ġmiro": 2815,
      "Ġobjek": 2816,
      "Ġdjecu": 2817,
      "zora": 2818,
      "fici": 2819,
      "ĠÅ¾elj": 2820,
      "ĠÅ¾up": 2821,
      "Ð¸Ð": 2822,
      "Ġeks": 2823,
      "ĠmeÄĳunaro": 2824,
      "Äįnja": 2825,
      "jam": 2826,
      "stna": 2827,
      "Ġsum": 2828,
      "sak": 2829,
      "ĠrazmiÅ¡lja": 2830,
      "Ġdjeca": 2831,
      "ĠnajveÄĩi": 2832,
      "gne": 2833,
      "nge": 2834,
      "naj": 2835,
      "rili": 2836,
      "Ġpogre": 2837,
      "Ġravna": 2838,
      "puÅ¡ta": 2839,
      "vljaju": 2840,
      "Ġtrav": 2841,
      "zme": 2842,
      "Ġpotom": 2843,
      "Ġnaime": 2844,
      "Ġprote": 2845,
      "Ġmoj": 2846,
      "âĢĻ": 2847,
      "Ġstr": 2848,
      "zenta": 2849,
      "Ġvlast": 2850,
      "hat": 2851,
      "Ġposljedi": 2852,
      "Ġmetara": 2853,
      "ĠovlaÅ¡te": 2854,
      "Ġkolovo": 2855,
      "Ġnedosta": 2856,
      "dnu": 2857,
      "Ġotac": 2858,
      "ris": 2859,
      "stan": 2860,
      "Äįara": 2861,
      "Ġniz": 2862,
      "Ġstran": 2863,
      "Ġnov": 2864,
      "ĠnajÄįe": 2865,
      "ĠÄįiji": 2866,
      "ĠÄįeka": 2867,
      "Ġotvara": 2868,
      "Ġjedino": 2869,
      "nijih": 2870,
      "Ġsrednje": 2871,
      "ĠbuduÄĩi": 2872,
      "ĠtisuÄĩa": 2873,
      "stname": 2874,
      "23": 2875,
      "wa": 2876,
      "Ġtzv": 2877,
      "Ġmom": 2878,
      "Å¾iÄĩ": 2879,
      "ĠÅ¾ivje": 2880,
      "Ġvjer": 2881,
      "Ġoptere": 2882,
      "Ġcijene": 2883,
      "Ġnikada": 2884,
      "Ġljubavi": 2885,
      "vljuje": 2886,
      "Ġstjeca": 2887,
      "Ġjosip": 2888,
      "srpanj": 2889,
      "24": 2890,
      "rtu": 2891,
      "ts": 2892,
      "Ã©": 2893,
      "Ġubr": 2894,
      "valo": 2895,
      "listi": 2896,
      "matra": 2897,
      "Ġpora": 2898,
      "Ġzvije": 2899,
      "Äįice": 2900,
      "Ġmoja": 2901,
      "sada": 2902,
      "ĠpoÄįetku": 2903,
      "ĠzapreÅ¡iÄĩa": 2904,
      "ample": 2905,
      "//": 2906,
      "ou": 2907,
      "tske": 2908,
      "niku": 2909,
      "Ġpostupa": 2910,
      "Ġakade": 2911,
      "Ġodgovor": 2912,
      "Ġdovoljno": 2913,
      "ÄįiÄĩa": 2914,
      "Ġmobi": 2915,
      "Ġemi": 2916,
      "Ġvina": 2917,
      "Ġnorma": 2918,
      "Ġturi": 2919,
      "Ġ2005": 2920,
      "Ġstvara": 2921,
      "Ġsocija": 2922,
      "Ġradovi": 2923,
      "Ġprirode": 2924,
      "Ġobzirom": 2925,
      "Ġig": 2926,
      "Ġovim": 2927,
      "vane": 2928,
      "Ġmorna": 2929,
      "Ġen": 2930,
      "Ġredo": 2931,
      "Ġknjigu": 2932,
      "Ġgrupa": 2933,
      "ttp": 2934,
      "mp": 2935,
      "Ġured": 2936,
      "ĠpoÅ¡to": 2937,
      "vice": 2938,
      "Ġdozvo": 2939,
      "Ġsan": 2940,
      "biti": 2941,
      "bilje": 2942,
      "Ġmani": 2943,
      "ĠmiÅ¡": 2944,
      "Å¡enje": 2945,
      "Ġzema": 2946,
      "Ġ2008": 2947,
      "godiÅ¡nji": 2948,
      "ĠpojaÄįa": 2949,
      "Ġpitanja": 2950,
      "ĠgradonaÄįe": 2951,
      "dnog": 2952,
      "Â«": 2953,
      "Ñģ": 2954,
      "Ġpoko": 2955,
      "Å¾nog": 2956,
      "Ġkola": 2957,
      "Ġsama": 2958,
      "ĠâĢ¢": 2959,
      "Å¡avanje": 2960,
      "Ġprijed": 2961,
      "Ġhar": 2962,
      "Ġsnage": 2963,
      "://": 2964,
      "Ġ&": 2965,
      "Å¡la": 2966,
      "Ġnastu": 2967,
      "Ġposu": 2968,
      "Ġkupa": 2969,
      "Ġosnovna": 2970,
      "Ġsjeve": 2971,
      "Ġsnagu": 2972,
      "Ġkoncert": 2973,
      "Ġispod": 2974,
      "rcego": 2975,
      "ĠiskljuÄįi": 2976,
      "example": 2977,
      "lacije": 2978,
      "Ġmra": 2979,
      "dima": 2980,
      "dama": 2981,
      "Ġdati": 2982,
      "Äįije": 2983,
      "Ġpreuze": 2984,
      "Äĩen": 2985,
      "Äįer": 2986,
      "Ġpak": 2987,
      "njuju": 2988,
      "Ġprvog": 2989,
      "Ġknjizi": 2990,
      "Ġ60": 2991,
      "ĠzagrebaÄįke": 2992,
      "ir": 2993,
      "ncije": 2994,
      "Ġjest": 2995,
      "Ġprikaza": 2996,
      "ĠnoÄĩ": 2997,
      "Ġdistri": 2998,
      "Ġhrvatskom": 2999,
      "Ġlako": 3000,
      "Ġslove": 3001,
      "ĠizvoÄĳenje": 3002,
      "Ġnjoj": 3003,
      "Ġnekim": 3004,
      "22": 3005,
      "??": 3006,
      "kva": 3007,
      "Ġusko": 3008,
      "Ġuboj": 3009,
      "Ġkore": 3010,
      "Ġant": 3011,
      "Ġkana": 3012,
      "deset": 3013,
      "Ġnogo": 3014,
      "Ġprilago": 3015,
      "fu": 3016,
      "Ġsja": 3017,
      "nisti": 3018,
      "Ġmore": 3019,
      "Ġmogla": 3020,
      "ĠÄįemu": 3021,
      "Ġvlasnika": 3022,
      "cijskih": 3023,
      "ĠuÄįenici": 3024,
      "Ġnaziv": 3025,
      "Ġpredsjednika": 3026,
      "Ġproblema": 3027,
      "Ġuop": 3028,
      "Ġpreporu": 3029,
      "Ġgloba": 3030,
      "Ġnju": 3031,
      "Ġilu": 3032,
      "tina": 3033,
      "Ġpovra": 3034,
      "Äįini": 3035,
      "ziju": 3036,
      "ĠodrÅ¾avanje": 3037,
      "Ġodluke": 3038,
      "ĠsmjeÅ¡te": 3039,
      "Ġskladu": 3040,
      "lin": 3041,
      "mes": 3042,
      "Ġrece": 3043,
      "Ġviru": 3044,
      "Ġpotra": 3045,
      "Ġjedinstve": 3046,
      "ĠkoriÅ¡tenja": 3047,
      "ĠzavrÅ¡": 3048,
      "Ġzanimlji": 3049,
      "snost": 3050,
      "Ġsc": 3051,
      "Ġuze": 3052,
      "ĠnaÄįe": 3053,
      "Ġsedam": 3054,
      "ĠdoÄĩi": 3055,
      "Ġprotu": 3056,
      "Ġrat": 3057,
      "ljenje": 3058,
      "Å¾ava": 3059,
      "Ġcvije": 3060,
      "ĠobiÄįno": 3061,
      "Ġposlove": 3062,
      "Ġkompo": 3063,
      "Ġpitanje": 3064,
      "ĠdomaÄĩi": 3065,
      "ms": 3066,
      "wi": 3067,
      "Ġnado": 3068,
      "Ġsusje": 3069,
      "Ġizbje": 3070,
      "Ġbilj": 3071,
      "Ġpreo": 3072,
      "Äįaje": 3073,
      "ĠvaÅ¡": 3074,
      "ĠÅ¡est": 3075,
      "Ġreak": 3076,
      "________________": 3077,
      "Ġosam": 3078,
      "Ġporta": 3079,
      "Ġzabora": 3080,
      "Ġpreu": 3081,
      "Å¾ili": 3082,
      "Ġdese": 3083,
      "ĠtreÄĩi": 3084,
      "Ġrujna": 3085,
      "âĢľ.": 3086,
      "Ġnjihov": 3087,
      "Ġsrp": 3088,
      "Ġprostoru": 3089,
      "Ġproizvodnja": 3090,
      "spek": 3091,
      "Ġzahvalju": 3092,
      "Ġistak": 3093,
      "Ġkandida": 3094,
      "mpa": 3095,
      "jama": 3096,
      "Ġdalj": 3097,
      "ĠteÅ¾i": 3098,
      "Ġmarija": 3099,
      "Ġsiste": 3100,
      "ĠpiÅ¡e": 3101,
      "Ġfilo": 3102,
      "ĠomoguÄĩi": 3103,
      "Ġprofesi": 3104,
      "Ġvideo": 3105,
      "bran": 3106,
      "nite": 3107,
      "lici": 3108,
      "Ġtla": 3109,
      "Ġtopli": 3110,
      "Ġrazloga": 3111,
      "Ġrazvija": 3112,
      "Ġkup": 3113,
      "Ġsina": 3114,
      "Ġdefi": 3115,
      "Ġ31": 3116,
      "Å¡tina": 3117,
      "Ġgubi": 3118,
      "Ġzgrade": 3119,
      "ĠponaÅ¡a": 3120,
      "Ġugovora": 3121,
      "nin": 3122,
      "Ġovih": 3123,
      "lita": 3124,
      "Ġbran": 3125,
      "Ġzanima": 3126,
      "Ġprome": 3127,
      "Äįila": 3128,
      "Ġliko": 3129,
      "Ġjasno": 3130,
      "Ġvodo": 3131,
      "Ġhrvatsko": 3132,
      "Ġ2000": 3133,
      "Ġstola": 3134,
      "vljeno": 3135,
      "Ġzajednice": 3136,
      "ĠÅ¾rt": 3137,
      "Ġnaravno": 3138,
      "Ġmijenja": 3139,
      "Ġpobolj": 3140,
      "Ġdistribu": 3141,
      "tivno": 3142,
      "ljeni": 3143,
      "ĠÅ¡pa": 3144,
      "Ġante": 3145,
      "Ġsjever": 3146,
      "Ġpretpo": 3147,
      "Ġtrenutku": 3148,
      "Ġprepozna": 3149,
      "dran": 3150,
      "rnih": 3151,
      "Ġori": 3152,
      "Ġneda": 3153,
      "ĠproÄįita": 3154,
      "tnik": 3155,
      "ĠplaÄĩa": 3156,
      "ĠvraÄĩa": 3157,
      "Ġprojekta": 3158,
      "Ġzahtjev": 3159,
      "Ġpjesme": 3160,
      "lnosti": 3161,
      "rs": 3162,
      "Ġblo": 3163,
      "les": 3164,
      "Ġpripo": 3165,
      "Ġroku": 3166,
      "Ġmjeri": 3167,
      "ĠÅ¾ele": 3168,
      "Ġrijeci": 3169,
      "proda": 3170,
      "Ġdobiti": 3171,
      "Ġumjesto": 3172,
      "25": 3173,
      "ĠoÄįu": 3174,
      "Ġnapada": 3175,
      "Å¾ja": 3176,
      "Ġkne": 3177,
      "Ġnovu": 3178,
      "nijeti": 3179,
      "Ġsposob": 3180,
      "Ġupotre": 3181,
      "Ġmjeseca": 3182,
      "Ġposljednji": 3183,
      "Ġotoka": 3184,
      "ĠopÄĩina": 3185,
      "Ġiznena": 3186,
      "Ġidu": 3187,
      "ĠpoÅ¾a": 3188,
      "kim": 3189,
      "Ġteri": 3190,
      "Äįena": 3191,
      "Ġeva": 3192,
      "Ġtam": 3193,
      "Ġmed": 3194,
      "Ġbora": 3195,
      "Äįuje": 3196,
      "ĠÄįlanova": 3197,
      "Ġbrita": 3198,
      "Ġarhitek": 3199,
      "Ġmjeseci": 3200,
      "Ġpromjene": 3201,
      "Ġukupno": 3202,
      "Ġfestiva": 3203,
      "Ġprosinca": 3204,
      "./": 3205,
      "gna": 3206,
      "rba": 3207,
      "Ġino": 3208,
      "nicija": 3209,
      "Ġpodije": 3210,
      "Ġodredi": 3211,
      "Ġsupro": 3212,
      "Ġnesta": 3213,
      "mica": 3214,
      "Å¾ena": 3215,
      "Ġnitko": 3216,
      "Ġpada": 3217,
      "org": 3218,
      "Ġ195": 3219,
      "Ġlov": 3220,
      "Ġrijeka": 3221,
      "vljeni": 3222,
      "Ġkriti": 3223,
      "ĠÅ¡koli": 3224,
      "ĠzemljiÅ¡ta": 3225,
      "Ġnekretnina": 3226,
      "Ġraspra": 3227,
      "ĠnaÅ¡im": 3228,
      "Ġenergije": 3229,
      "Ġkraljev": 3230,
      "pisuje": 3231,
      "04": 3232,
      "Ġshvati": 3233,
      "nula": 3234,
      "Ġvrt": 3235,
      "den": 3236,
      "Äįen": 3237,
      "Ġtoj": 3238,
      "sen": 3239,
      "Ġcro": 3240,
      "Ġkojemu": 3241,
      "ĠÅ¾idov": 3242,
      "Ġruko": 3243,
      "Ġautomo": 3244,
      "Ġposlova": 3245,
      "Ġnazivom": 3246,
      "Ġsvakodne": 3247,
      "Ġobliku": 3248,
      "jne": 3249,
      "jskim": 3250,
      "vke": 3251,
      "nes": 3252,
      "Ġnapre": 3253,
      "Ġmc": 3254,
      "Ġbibli": 3255,
      "pote": 3256,
      "turu": 3257,
      "stom": 3258,
      "Ġveze": 3259,
      "Ġmeni": 3260,
      "Ġvarija": 3261,
      "Ġpredvi": 3262,
      "Ġsvake": 3263,
      "fek": 3264,
      "Ġvrijednost": 3265,
      "Ġ2013": 3266,
      "Ġonaj": 3267,
      "Ġposjedu": 3268,
      "Ġsvjetskog": 3269,
      "ĠgraÄĳevinskih": 3270,
      "Ġminuta": 3271,
      "dnim": 3272,
      "jevima": 3273,
      "ĠuÄįin": 3274,
      "Ġugovor": 3275,
      "Ġnastupa": 3276,
      "lou": 3277,
      "kih": 3278,
      "Ġprera": 3279,
      "Ġmanji": 3280,
      "Ġimamo": 3281,
      "Ġaustri": 3282,
      "Ġpostavlja": 3283,
      "Ġdijelova": 3284,
      "Ġinternet": 3285,
      "Ġelektri": 3286,
      "Ġsvakog": 3287,
      "ĠopÄĩine": 3288,
      "Ġweb": 3289,
      "Ġcrkva": 3290,
      "ĠoÄįeki": 3291,
      "Ġumi": 3292,
      "vini": 3293,
      "ĠzavrÅ¡e": 3294,
      "Ġdao": 3295,
      "Ġdopri": 3296,
      "Ġizo": 3297,
      "nuli": 3298,
      "Ġmolit": 3299,
      "Ġregu": 3300,
      "Ġsvoga": 3301,
      "Ġvalja": 3302,
      "Ġvolje": 3303,
      "Ġnadzor": 3304,
      "ĠvijeÄĩa": 3305,
      "Ġpjesma": 3306,
      "Ġtrudno": 3307,
      "Ġmladih": 3308,
      "Ġjednostavno": 3309,
      "rke": 3310,
      "um": 3311,
      "Ġigre": 3312,
      "raÄįu": 3313,
      "Ġupis": 3314,
      "Ġpou": 3315,
      "Ġnaz": 3316,
      "vora": 3317,
      "Å¾nje": 3318,
      "mora": 3319,
      "Ġsvojom": 3320,
      "Å¡iti": 3321,
      "Ġpodr": 3322,
      "Ġnajva": 3323,
      "Ġspomi": 3324,
      "Ġpotrebe": 3325,
      "Ġ2014": 3326,
      "Ġnaroda": 3327,
      "Ġsprem": 3328,
      "Ġtrans": 3329,
      "ĠnajÄįeÅ¡Äĩe": 3330,
      "cke": 3331,
      "nzi": 3332,
      "sci": 3333,
      "Ġina": 3334,
      "Ġopisa": 3335,
      "njak": 3336,
      "Ġhr": 3337,
      "Äįava": 3338,
      "ljak": 3339,
      "Ġosvoji": 3340,
      "vul": 3341,
      "Ġpusti": 3342,
      "Ġostali": 3343,
      "Ġrazliku": 3344,
      "ĠsluÅ¾nosti": 3345,
      "ĠsluÄįaj": 3346,
      "ĠvaraÅ¾di": 3347,
      "Ġpovodom": 3348,
      "ĠuopÄĩe": 3349,
      "blju": 3350,
      "cka": 3351,
      "Ġupa": 3352,
      "kaz": 3353,
      "ĠpriÄįe": 3354,
      "dera": 3355,
      "gija": 3356,
      "Ġrazno": 3357,
      "hony": 3358,
      "Ġlak": 3359,
      "Ġsmrt": 3360,
      "Ġvelikog": 3361,
      "03": 3362,
      "jatno": 3363,
      "riju": 3364,
      "mail": 3365,
      "Ġzadar": 3366,
      "Ġpromije": 3367,
      "Ġrela": 3368,
      "Ġlist": 3369,
      "Ġinvesti": 3370,
      "Ġjavnosti": 3371,
      "Ġsin": 3372,
      "Ġpodsje": 3373,
      "ĠÅ¾ive": 3374,
      "Ġkorist": 3375,
      "Ġbrod": 3376,
      "Ġstoji": 3377,
      "Ġprijatelj": 3378,
      "Ġprimjer": 3379,
      "Ġnekih": 3380,
      "Ġprodaja": 3381,
      "Ġsuradnji": 3382,
      "menata": 3383,
      "zagorske": 3384,
      "Ġfilozo": 3385,
      "gr": 3386,
      "Ġsy": 3387,
      "Ġuzima": 3388,
      "Ġklije": 3389,
      "Ġkape": 3390,
      "Ġdom": 3391,
      "Ġprocje": 3392,
      "gama": 3393,
      "ĠsveÄĩe": 3394,
      "vnici": 3395,
      "Ġglaso": 3396,
      "Ġtrebalo": 3397,
      "Ġodnosu": 3398,
      "Ġposlovnih": 3399,
      "Å¡kog": 3400,
      "plika": 3401,
      "que": 3402,
      "Ġagencija": 3403,
      "Ġspecijalizira": 3404,
      "rina": 3405,
      "Ġkoma": 3406,
      "tus": 3407,
      "Ġmilo": 3408,
      "dnici": 3409,
      "Ġhercego": 3410,
      "Ġhidro": 3411,
      "Ġkreta": 3412,
      "Ġanthony": 3413,
      "dri": 3414,
      "ndu": 3415,
      "ncu": 3416,
      "prija": 3417,
      "naka": 3418,
      "nose": 3419,
      "pora": 3420,
      "Ġtemu": 3421,
      "Ġpari": 3422,
      "Ġpapi": 3423,
      "Ġprakti": 3424,
      "Ġpetak": 3425,
      "Ġpotro": 3426,
      "Ġvrti": 3427,
      "Ġotvori": 3428,
      "ĠodrÅ¾avanja": 3429,
      "Ġupozo": 3430,
      "Ġparko": 3431,
      "Ġimena": 3432,
      "Ġorganizacija": 3433,
      "Ġdaleko": 3434,
      "Ġtravnja": 3435,
      "dz": 3436,
      "nila": 3437,
      "Ġnavo": 3438,
      "dak": 3439,
      "Ġodo": 3440,
      "Ġsuko": 3441,
      "Ġnetko": 3442,
      "Ġsata": 3443,
      "Ġbiv": 3444,
      "ĠroÄĳen": 3445,
      "Ġsvakom": 3446,
      "Ġcivi": 3447,
      "Ġdijete": 3448,
      "ĠpoÄįeo": 3449,
      "Ġslike": 3450,
      "Ġbrojne": 3451,
      "Ġorganizaciji": 3452,
      "Ġhrane": 3453,
      "ĠodgovarajuÄĩi": 3454,
      "06": 3455,
      "nsku": 3456,
      "Ġulaz": 3457,
      "tinu": 3458,
      "lana": 3459,
      "Ġpopra": 3460,
      "ĠzadrÅ¾a": 3461,
      "Ġkonta": 3462,
      "Ġbilje": 3463,
      "Ġstre": 3464,
      "Ġstvori": 3465,
      "Å¡enja": 3466,
      "ĠodrÅ¾ati": 3467,
      "Ġkrvi": 3468,
      "Ġdrugom": 3469,
      "Ð¸Ñ": 3470,
      "Ġnaziva": 3471,
      "Ġtrgovina": 3472,
      "Ġproizvodnju": 3473,
      "ĠtrÅ¾iÅ¡tu": 3474,
      "fra": 3475,
      "Ġiska": 3476,
      "Ġpored": 3477,
      "Ġzadru": 3478,
      "more": 3479,
      "moÄĩ": 3480,
      "Ġmaksi": 3481,
      "Ġkuhi": 3482,
      "Ġstranice": 3483,
      "Ġribe": 3484,
      "ĠknjiÅ¾": 3485,
      "ntima": 3486,
      "Ġcijele": 3487,
      "Ġnastavlja": 3488,
      "Ġtemelj": 3489,
      "Ġlicence": 3490,
      "Ġcrkvi": 3491,
      "ĠsjediÅ¡te": 3492,
      "ĠveljaÄįe": 3493,
      "Ġkolovoza": 3494,
      "ksu": 3495,
      "mla": 3496,
      "Ġimo": 3497,
      "Ġnamijenje": 3498,
      "Ġzvo": 3499,
      "Ġradom": 3500,
      "Ġedu": 3501,
      "Ġstanje": 3502,
      "Ġperio": 3503,
      "ster": 3504,
      "Ġbroja": 3505,
      "ĠsadrÅ¾i": 3506,
      "Ġidenti": 3507,
      "Ġopremlje": 3508,
      "ĠuspjeÅ¡no": 3509,
      "Ġostvari": 3510,
      "Ġzdravstve": 3511,
      "ĠsijeÄįnja": 3512,
      "Ġjugosla": 3513,
      "ĠiskljuÄįivo": 3514,
      "Ġpretposta": 3515,
      "ks": 3516,
      "pti": 3517,
      "Ġivana": 3518,
      "Ġupi": 3519,
      "vaÄį": 3520,
      "tosti": 3521,
      "Ġzastup": 3522,
      "Ġsas": 3523,
      "Ġprofi": 3524,
      "Äįinu": 3525,
      "Ġmen": 3526,
      "Ġboje": 3527,
      "Ġdeve": 3528,
      "Ġcijeli": 3529,
      "Ġosnovne": 3530,
      "âĢĿ.": 3531,
      "Ġkomple": 3532,
      "Ġuvjetima": 3533,
      "Ġgrupe": 3534,
      "Ġtjedna": 3535,
      "Ġnovac": 3536,
      "Ġdobar": 3537,
      "ĠpronaÄĩi": 3538,
      "au": 3539,
      "ih": 3540,
      "Ġpotica": 3541,
      "Ġzu": 3542,
      "ĠdoÅ¡ao": 3543,
      "Ġsara": 3544,
      "Ġprovodi": 3545,
      "Ġhttp": 3546,
      "Ġgori": 3547,
      "Ġdisko": 3548,
      "Ġsveti": 3549,
      "ĠvaÅ¾no": 3550,
      "ĠmuÅ¡ka": 3551,
      "ĠÄįesti": 3552,
      "Ġplan": 3553,
      "Ġplanira": 3554,
      "Ġsporazu": 3555,
      "Ġodnose": 3556,
      "Ġljudima": 3557,
      "Ġpriprema": 3558,
      "Ġsastoji": 3559,
      "Ġprofesional": 3560,
      "].": 3561,
      "bla": 3562,
      "jsko": 3563,
      "Ġinicija": 3564,
      "Ġobe": 3565,
      "Ġnaba": 3566,
      "voda": 3567,
      "Ġiznim": 3568,
      "Ġpropa": 3569,
      "Ġmala": 3570,
      "Ġfon": 3571,
      "ĠinÅ¾enje": 3572,
      "Ġobla": 3573,
      "rvat": 3574,
      "Ġznanosti": 3575,
      "vlada": 3576,
      "ĠdrÅ¾i": 3577,
      "Ġeurope": 3578,
      "Ġblizi": 3579,
      "njol": 3580,
      "Ġsezone": 3581,
      "ĠoÅ¾ujka": 3582,
      ".),": 3583,
      "ls": 3584,
      "rski": 3585,
      "Ġnog": 3586,
      "ĠÄĳa": 3587,
      "Ġsnima": 3588,
      "Ġula": 3589,
      "Ġbru": 3590,
      "ding": 3591,
      "rum": 3592,
      "Ġfranje": 3593,
      "pila": 3594,
      "Ġsrca": 3595,
      "Ġposjed": 3596,
      "Ġtrenutno": 3597,
      "Ġindust": 3598,
      "Ġzadovo": 3599,
      "Ġnaviga": 3600,
      "Ġubrzo": 3601,
      "ĠnajvaÅ¾": 3602,
      "rje": 3603,
      "lite": 3604,
      "kako": 3605,
      "kazi": 3606,
      "Ġnasto": 3607,
      "Ġiznad": 3608,
      "Ġpropo": 3609,
      "Ġprovje": 3610,
      "Ġprosje": 3611,
      "Ġhor": 3612,
      "Ġnovim": 3613,
      "Ġrazmje": 3614,
      "Ġvod": 3615,
      "ĠduÅ¾an": 3616,
      "Ġwor": 3617,
      "Ġnaslje": 3618,
      "ĠuÄįenika": 3619,
      "Ġvelikim": 3620,
      "2013": 3621,
      "ĠpoduzeÄĩa": 3622,
      "Ġkarakte": 3623,
      "Ġafri": 3624,
      "rnog": 3625,
      "Å¾na": 3626,
      "Ġsela": 3627,
      "Ġthat": 3628,
      "Ġdostup": 3629,
      "min": 3630,
      "Ġgore": 3631,
      "Ġstambe": 3632,
      "ntra": 3633,
      "Å¡taja": 3634,
      "Ġfir": 3635,
      "Ġkonvul": 3636,
      "Ġradove": 3637,
      "ĠgraÄĳana": 3638,
      "Ġcjelo": 3639,
      "ĠnaÅ¡ih": 3640,
      "ĠkoriÅ¡tenje": 3641,
      "Ġzahtijevati": 3642,
      ":||": 3643,
      "rku": 3644,
      "Ġsho": 3645,
      "ret": 3646,
      "ria": 3647,
      "Ġzabilje": 3648,
      "Ġasi": 3649,
      "Ġthi": 3650,
      "Ġnesre": 3651,
      "Äįeni": 3652,
      "mio": 3653,
      "Ġvid": 3654,
      "ĠnoÄĩi": 3655,
      "Ġlibi": 3656,
      "Ġjadran": 3657,
      "Ġrobe": 3658,
      "Ġostao": 3659,
      "ĠvjenÄįa": 3660,
      "Ġcrno": 3661,
      "Ġizrada": 3662,
      "Ġnpr": 3663,
      "Ġkluba": 3664,
      "Ġsasvim": 3665,
      "at": 3666,
      "lt": 3667,
      "pta": 3668,
      "ye": 3669,
      "Ġsrije": 3670,
      "Ġujedno": 3671,
      "tila": 3672,
      "Å¡kom": 3673,
      "teh": 3674,
      "teme": 3675,
      "Ġkarije": 3676,
      "mos": 3677,
      "Ġtakav": 3678,
      "get": 3679,
      "Ġbeto": 3680,
      "Ġostala": 3681,
      "Ġodnosi": 3682,
      "Ġjednoj": 3683,
      "2007": 3684,
      "Ġpoziva": 3685,
      "Ġgraditelj": 3686,
      "Ġborbe": 3687,
      "ĠrjeÅ¡enje": 3688,
      "Ġalbum": 3689,
      "26": 3690,
      "29": 3691,
      "cs": 3692,
      "snom": 3693,
      "lie": 3694,
      "tes": 3695,
      "Å¾nom": 3696,
      "Ġodlazi": 3697,
      "Ġpropisa": 3698,
      "Ġbici": 3699,
      "Äįinje": 3700,
      "ginal": 3701,
      "puÅ¡te": 3702,
      "Ġjavlja": 3703,
      "Ġispred": 3704,
      "Ġruke": 3705,
      "Ġpravila": 3706,
      "Ġmajka": 3707,
      "rca": 3708,
      "spi": 3709,
      "Ġsvu": 3710,
      "lovima": 3711,
      "Ġare": 3712,
      "Ġkrva": 3713,
      "Ġpribli": 3714,
      "Ġpreci": 3715,
      "Ġnismo": 3716,
      "Äĳenih": 3717,
      "Ġosu": 3718,
      "Ġprvih": 3719,
      "rijama": 3720,
      "Ġwil": 3721,
      "Ġwww": 3722,
      "Ġostaje": 3723,
      "Ġlijepo": 3724,
      "Ġdjelovanja": 3725,
      "Ġpozor": 3726,
      "ĠrazliÄįite": 3727,
      "Ġfotografije": 3728,
      "Ġdizaj": 3729,
      "ili": 3730,
      "ras": 3731,
      "Ġpoti": 3732,
      "Ġporo": 3733,
      "Äĩom": 3734,
      "Ġizuze": 3735,
      "Ġprosvje": 3736,
      "gova": 3737,
      "Ġpresu": 3738,
      "Ġmoglo": 3739,
      "cem": 3740,
      "Ġdigi": 3741,
      "Ġdrugu": 3742,
      "Å¡an": 3743,
      "ĠvrÅ¡i": 3744,
      "ĠÄįije": 3745,
      "Ġkonku": 3746,
      "ĠpoÄįetak": 3747,
      "Ġvremenu": 3748,
      "ĠÑģ": 3749,
      "Ġraspolaga": 3750,
      "Ġsmislu": 3751,
      "ĠnaÅ¡oj": 3752,
      "Ġslijede": 3753,
      "08": 3754,
      "dy": 3755,
      "jmo": 3756,
      "ĠdoÄĳe": 3757,
      "Ġtor": 3758,
      "Ġcvje": 3759,
      "Ġlondo": 3760,
      "Ġstranica": 3761,
      "Ġnjegovim": 3762,
      "Ġcijenama": 3763,
      "ĠÅ¡kolu": 3764,
      "Ġmarko": 3765,
      "Ġbespla": 3766,
      "Ġoslobo": 3767,
      "kvi": 3768,
      "jevi": 3769,
      "Äįnost": 3770,
      "let": 3771,
      "Ġmake": 3772,
      "Ġobno": 3773,
      "Ġ2006": 3774,
      "ĠodrÅ¾ana": 3775,
      "Ġmarke": 3776,
      "Ġureda": 3777,
      "199": 3778,
      "Ġulogu": 3779,
      "ĠÅ¾elite": 3780,
      "Ġsavjeto": 3781,
      "ĠgraÄĳevinar": 3782,
      "zmu": 3783,
      "Ð½": 3784,
      "ting": 3785,
      "Äįnosti": 3786,
      "Ġzara": 3787,
      "Ġzadnji": 3788,
      "loj": 3789,
      "Ġklima": 3790,
      "mima": 3791,
      "Ġmaso": 3792,
      "Ġvese": 3793,
      "Ġobr": 3794,
      "Ġstalno": 3795,
      "Ġputu": 3796,
      "Ġdubo": 3797,
      "ĠÄįine": 3798,
      "ĠhoÄĩe": 3799,
      "Ġdijelom": 3800,
      "ĠizvoÄĳa": 3801,
      "Ġzrako": 3802,
      "Ġsplitu": 3803,
      "Ġekonom": 3804,
      "Ġkarakteristi": 3805,
      "jev": 3806,
      "ning": 3807,
      "Ġdre": 3808,
      "Ġpoto": 3809,
      "Ġzalju": 3810,
      "Ġdani": 3811,
      "len": 3812,
      "Ġizd": 3813,
      "Ġprista": 3814,
      "ĠmoÄĩ": 3815,
      "Å¾eni": 3816,
      "Ġmasli": 3817,
      "sio": 3818,
      "Ġnjim": 3819,
      "Ġsoft": 3820,
      "Ġgodinama": 3821,
      "Ġzahtjeva": 3822,
      "ĠureÄĳenje": 3823,
      "Ġprojektiranje": 3824,
      "ĠpoboljÅ¡a": 3825,
      "Ġevaku": 3826,
      "33": 3827,
      "est": 3828,
      "Ġ>": 3829,
      "ranu": 3830,
      "Ġuki": 3831,
      "vak": 3832,
      "Å¡ne": 3833,
      "kani": 3834,
      "Ġnao": 3835,
      "Ġkva": 3836,
      "Ġprof": 3837,
      "Ġprihvati": 3838,
      "ziji": 3839,
      "bilj": 3840,
      "ĠÅ¡po": 3841,
      "Ġreci": 3842,
      "Ġdiplo": 3843,
      "tnije": 3844,
      "han": 3845,
      "Ġprska": 3846,
      "nciji": 3847,
      "ĠÅ¡iri": 3848,
      "Ġzaposle": 3849,
      "Ġhumani": 3850,
      "Ġmislim": 3851,
      "Ġnagrada": 3852,
      "Ġmanife": 3853,
      "ĠÅ¡panjol": 3854,
      "Ġfestival": 3855,
      "05": 3856,
      "jma": 3857,
      "jskom": 3858,
      "Ġokre": 3859,
      "Ġpovolj": 3860,
      "Ġpregled": 3861,
      "tur": 3862,
      "pija": 3863,
      "Å¡im": 3864,
      "Ġizrazi": 3865,
      "Ġtvrdi": 3866,
      "Ġcentru": 3867,
      "Ġgimna": 3868,
      "Ġodgovaraju": 3869,
      "ĠdoÅ¡lo": 3870,
      "Ġrazvoja": 3871,
      "27": 3872,
      "ranih": 3873,
      "Å¡njem": 3874,
      "Ġodbora": 3875,
      "Ġsup": 3876,
      "Äĩenje": 3877,
      "Ġtop": 3878,
      "Ġpau": 3879,
      "Ġlica": 3880,
      "Ġdruk": 3881,
      "Ġkuha": 3882,
      "Ġimam": 3883,
      "ĠduÅ¾i": 3884,
      "Ġznati": 3885,
      "Ġspeci": 3886,
      "Ġblag": 3887,
      "ĠÐ¿": 3888,
      "Ġumro": 3889,
      "ct": 3890,
      "oma": 3891,
      "vku": 3892,
      "nili": 3893,
      "Ġuto": 3894,
      "ring": 3895,
      "lacija": 3896,
      "Ġpovla": 3897,
      "volu": 3898,
      "ler": 3899,
      "Ġodvje": 3900,
      "Ġdobra": 3901,
      "Äĩena": 3902,
      "Ġobzira": 3903,
      "zer": 3904,
      "Ġ36": 3905,
      "Ġostalim": 3906,
      "ĠkriÅ¾a": 3907,
      "Ġtrebao": 3908,
      "gradnja": 3909,
      "Ġzapovje": 3910,
      "2009": 3911,
      "ĠstruÄįnja": 3912,
      "Ġstruk": 3913,
      "ĠistraÅ¾ivanja": 3914,
      "dbe": 3915,
      "sor": 3916,
      "vama": 3917,
      "lis": 3918,
      "vit": 3919,
      "toj": 3920,
      "Ġapo": 3921,
      "njenje": 3922,
      "Ġnepre": 3923,
      "Ġkazne": 3924,
      "zirati": 3925,
      "ljan": 3926,
      "Ġstanju": 3927,
      "Ġposjedni": 3928,
      "Å¡avanja": 3929,
      "Ġsamou": 3930,
      "Ġstvarno": 3931,
      "Ġprijatelji": 3932,
      "Ġtekst": 3933,
      "ĠsadrÅ¾aja": 3934,
      "Ġstanovnika": 3935,
      "Ġpovjere": 3936,
      "www": 3937,
      "Ġunapre": 3938,
      "ght": 3939,
      "Ġzemalja": 3940,
      ".âĢĿ": 3941,
      "21": 3942,
      "38": 3943,
      "nc": 3944,
      "lika": 3945,
      "Ġpob": 3946,
      "Ġzaslu": 3947,
      "Ġiznosi": 3948,
      "Ġgosti": 3949,
      "Å¾ila": 3950,
      "ĠgodiÅ¡nji": 3951,
      "snik": 3952,
      "tnici": 3953,
      "Ġostalo": 3954,
      "Ġveliku": 3955,
      "Ġautoce": 3956,
      "Ġorganizacije": 3957,
      "Ġjednako": 3958,
      "Ġforma": 3959,
      "Ġdubrova": 3960,
      "Ġponekad": 3961,
      "Ġsubotu": 3962,
      "ph": 3963,
      "spje": 3964,
      "Ġodi": 3965,
      "liÅ¡te": 3966,
      "meni": 3967,
      "Ġhdz": 3968,
      "Ġmati": 3969,
      "Ġmato": 3970,
      "Ġgrani": 3971,
      "Ġbosa": 3972,
      "Ġrazne": 3973,
      "Ġvoda": 3974,
      "Ġpredme": 3975,
      "Ġgradskog": 3976,
      "Ġinterije": 3977,
      "Ġvelikih": 3978,
      "Ġtjedan": 3979,
      "Ġneposre": 3980,
      "ĠbuduÄĩ": 3981,
      "ĠureÄĳaja": 3982,
      "bru": 3983,
      "pto": 3984,
      "Ġskri": 3985,
      "Ġopra": 3986,
      "Ġutje": 3987,
      "Å¡lja": 3988,
      "rove": 3989,
      "Ġdodje": 3990,
      "Ġprekra": 3991,
      "ĠpodrÅ¾a": 3992,
      "Ġkrajem": 3993,
      "Ġuskr": 3994,
      "ĠÄįija": 3995,
      "Ġraditi": 3996,
      "Ġcijena": 3997,
      "Ġpolicija": 3998,
      "Ġnjihovih": 3999,
      "Ġodluka": 4000,
      "Ġdrago": 4001,
      "Ġfilmo": 4002,
      "Ġposebnim": 4003,
      "Ġzgrada": 4004,
      "ĠobuhvaÄĩa": 4005,
      "Ġinteresa": 4006,
      "Ġsvakako": 4007,
      "Ġpozdrav": 4008,
      "Ġrestoran": 4009,
      "loud": 4010,
      "as": 4011,
      "ot": 4012,
      "ura": 4013,
      "toÄį": 4014,
      "Ġara": 4015,
      "Ġdokaza": 4016,
      "siti": 4017,
      "ser": 4018,
      "Ġrazvi": 4019,
      "Ġpravom": 4020,
      "bur": 4021,
      "Ġpotpisa": 4022,
      "ĠtraÅ¾e": 4023,
      "ĠodrÅ¾ava": 4024,
      "ĠsjeÄĩa": 4025,
      "Ġkilo": 4026,
      "Ġhep": 4027,
      "Ġjedini": 4028,
      "Ġkultura": 4029,
      "Ġotok": 4030,
      "Ġvjerojatno": 4031,
      "Ġcjepi": 4032,
      "Ġzatvore": 4033,
      "Ġblizini": 4034,
      "Ġujedi": 4035,
      "lini": 4036,
      "stvima": 4037,
      "Ġneku": 4038,
      "Ġpridru": 4039,
      "Ġpristupa": 4040,
      "Ġmonta": 4041,
      "miti": 4042,
      "sama": 4043,
      "Ġredovi": 4044,
      "Ġmesi": 4045,
      "zerva": 4046,
      "Ġprven": 4047,
      "Ġpoznati": 4048,
      "Ġpokreta": 4049,
      "Ġuniver": 4050,
      "ĠÅ¾ivotinje": 4051,
      "Ġkorisnika": 4052,
      "Ġskoro": 4053,
      "ĠdoÅ¾ivlja": 4054,
      "Ġepizo": 4055,
      "ĠzahvaljujuÄĩi": 4056,
      "ĠuÄįinkovi": 4057,
      "ak": 4058,
      "ds": 4059,
      "Ġska": 4060,
      "nau": 4061,
      "Ġun": 4062,
      "Ġuma": 4063,
      "nov": 4064,
      "rila": 4065,
      "Ġpobu": 4066,
      "Ġpokra": 4067,
      "Ġpoklo": 4068,
      "leta": 4069,
      "kiÄĩ": 4070,
      "Ġproti": 4071,
      "Äįani": 4072,
      "Äįaja": 4073,
      "Ġveoma": 4074,
      "Ġpapa": 4075,
      "Ġbarem": 4076,
      "Å¡tava": 4077,
      "ĠÄįime": 4078,
      "Ġkonzu": 4079,
      "Ġzemlju": 4080,
      "Ġstubi": 4081,
      "ĠpoÄįela": 4082,
      "Ġtvrtki": 4083,
      "ĠodluÄįi": 4084,
      "Ġsusret": 4085,
      "Ġdalmati": 4086,
      "ĠmomÄįa": 4087,
      "Ġevakua": 4088,
      "Ġsl": 4089,
      "Ġpokri": 4090,
      "Ġpogled": 4091,
      "Å¾nja": 4092,
      "njen": 4093,
      "Ġodmor": 4094,
      "Ġsalo": 4095
    },
    "merges": [
      [
        "j",
        "e"
      ],
      [
        "Ġ",
        "s"
      ],
      [
        "Ġ",
        "p"
      ],
      [
        "n",
        "a"
      ],
      [
        "Ġ",
        "i"
      ],
      [
        "r",
        "a"
      ],
      [
        "n",
        "i"
      ],
      [
        "k",
        "o"
      ],
      [
        "Ġ",
        "o"
      ],
      [
        "Ġ",
        "d"
      ],
      [
        "Ġ",
        "u"
      ],
      [
        "t",
        "i"
      ],
      [
        "n",
        "o"
      ],
      [
        "r",
        "e"
      ],
      [
        "Ä",
        "į"
      ],
      [
        "v",
        "a"
      ],
      [
        "l",
        "i"
      ],
      [
        "Å",
        "¡"
      ],
      [
        "t",
        "a"
      ],
      [
        "j",
        "a"
      ],
      [
        "r",
        "i"
      ],
      [
        "l",
        "a"
      ],
      [
        "m",
        "a"
      ],
      [
        "n",
        "e"
      ],
      [
        "k",
        "a"
      ],
      [
        "Ġp",
        "o"
      ],
      [
        "Ġ",
        "na"
      ],
      [
        "Ġ",
        "z"
      ],
      [
        "Ġ",
        "je"
      ],
      [
        "v",
        "i"
      ],
      [
        "t",
        "e"
      ],
      [
        "r",
        "o"
      ],
      [
        "t",
        "o"
      ],
      [
        "v",
        "o"
      ],
      [
        "Ä",
        "ĩ"
      ],
      [
        "Å",
        "¾"
      ],
      [
        "Ġ",
        "b"
      ],
      [
        "Ġ",
        "m"
      ],
      [
        "Ġz",
        "a"
      ],
      [
        "v",
        "e"
      ],
      [
        "Ġ",
        "ko"
      ],
      [
        "l",
        "o"
      ],
      [
        "c",
        "i"
      ],
      [
        "Ġ",
        "a"
      ],
      [
        "j",
        "u"
      ],
      [
        "j",
        "i"
      ],
      [
        "Ġ",
        "g"
      ],
      [
        "d",
        "i"
      ],
      [
        "d",
        "a"
      ],
      [
        "Ġs",
        "e"
      ],
      [
        "n",
        "je"
      ],
      [
        "Ġ",
        "k"
      ],
      [
        "Ġd",
        "a"
      ],
      [
        "s",
        "t"
      ],
      [
        "r",
        "u"
      ],
      [
        "l",
        "e"
      ],
      [
        "Ġo",
        "d"
      ],
      [
        "Ġs",
        "u"
      ],
      [
        "k",
        "i"
      ],
      [
        "Ġ",
        "t"
      ],
      [
        "Ġ",
        "ne"
      ],
      [
        "Ġ",
        "ka"
      ],
      [
        "Ġd",
        "o"
      ],
      [
        "m",
        "e"
      ],
      [
        "Ġs",
        "a"
      ],
      [
        "Ġi",
        "z"
      ],
      [
        "Ġp",
        "ro"
      ],
      [
        "m",
        "o"
      ],
      [
        "k",
        "e"
      ],
      [
        "s",
        "ta"
      ],
      [
        "Ġ",
        "ra"
      ],
      [
        "g",
        "a"
      ],
      [
        "Ä",
        "ĳ"
      ],
      [
        "s",
        "ti"
      ],
      [
        "Ġb",
        "i"
      ],
      [
        "g",
        "o"
      ],
      [
        "n",
        "u"
      ],
      [
        "n",
        "ja"
      ],
      [
        "Ġp",
        "ri"
      ],
      [
        "k",
        "u"
      ],
      [
        "Ġ",
        "v"
      ],
      [
        "Äį",
        "i"
      ],
      [
        "c",
        "a"
      ],
      [
        "Ġp",
        "re"
      ],
      [
        "z",
        "i"
      ],
      [
        "p",
        "o"
      ],
      [
        "Ġm",
        "o"
      ],
      [
        "l",
        "je"
      ],
      [
        "Ġ",
        "h"
      ],
      [
        "Äĩ",
        "e"
      ],
      [
        "l",
        "u"
      ],
      [
        "Ġ",
        "te"
      ],
      [
        "c",
        "e"
      ],
      [
        "d",
        "e"
      ],
      [
        "Äį",
        "e"
      ],
      [
        "m",
        "i"
      ],
      [
        "b",
        "i"
      ],
      [
        "Ġ",
        "1"
      ],
      [
        "p",
        "a"
      ],
      [
        "b",
        "a"
      ],
      [
        "Ġ",
        "Å¡"
      ],
      [
        "t",
        "u"
      ],
      [
        "Å¾",
        "e"
      ],
      [
        "s",
        "ko"
      ],
      [
        "Ġ",
        "ma"
      ],
      [
        "s",
        "i"
      ],
      [
        "Ġ",
        "to"
      ],
      [
        "Ġ",
        "f"
      ],
      [
        "Ġg",
        "o"
      ],
      [
        "Ġ",
        "-"
      ],
      [
        "s",
        "ki"
      ],
      [
        "d",
        "o"
      ],
      [
        "Ġ",
        "("
      ],
      [
        "Ġ",
        "e"
      ],
      [
        "Å¾",
        "i"
      ],
      [
        "Äį",
        "a"
      ],
      [
        "z",
        "a"
      ],
      [
        "b",
        "o"
      ],
      [
        "s",
        "a"
      ],
      [
        "p",
        "i"
      ],
      [
        "Ġ",
        "ni"
      ],
      [
        "Äĩ",
        "i"
      ],
      [
        "l",
        "ja"
      ],
      [
        "Ġ",
        "re"
      ],
      [
        "ni",
        "h"
      ],
      [
        "s",
        "to"
      ],
      [
        "â",
        "Ģ"
      ],
      [
        "Äĳ",
        "e"
      ],
      [
        "Ġ",
        "vi"
      ],
      [
        "Ġ",
        "ve"
      ],
      [
        "n",
        "ji"
      ],
      [
        "Ġ",
        "2"
      ],
      [
        "Ġ",
        "ta"
      ],
      [
        "j",
        "o"
      ],
      [
        "s",
        "e"
      ],
      [
        "Ġp",
        "a"
      ],
      [
        "Å¾",
        "a"
      ],
      [
        "Ġs",
        "t"
      ],
      [
        "Ġm",
        "i"
      ],
      [
        "Ġko",
        "ji"
      ],
      [
        "d",
        "u"
      ],
      [
        "no",
        "g"
      ],
      [
        "Å¡",
        "e"
      ],
      [
        "no",
        "m"
      ],
      [
        "Ġ",
        "c"
      ],
      [
        "g",
        "u"
      ],
      [
        "ri",
        "je"
      ],
      [
        "Äĩ",
        "a"
      ],
      [
        "Ġ",
        "no"
      ],
      [
        "Ġ",
        "li"
      ],
      [
        "l",
        "ju"
      ],
      [
        "Ġm",
        "e"
      ],
      [
        "Ġg",
        "ra"
      ],
      [
        "v",
        "je"
      ],
      [
        "0",
        "0"
      ],
      [
        "g",
        "ra"
      ],
      [
        "ni",
        "m"
      ],
      [
        "Ġb",
        "o"
      ],
      [
        "Ġd",
        "i"
      ],
      [
        "g",
        "i"
      ],
      [
        "s",
        "ke"
      ],
      [
        "b",
        "e"
      ],
      [
        "Ġi",
        "n"
      ],
      [
        "ci",
        "je"
      ],
      [
        "Ġo",
        "s"
      ],
      [
        "Ġo",
        "b"
      ],
      [
        "r",
        "va"
      ],
      [
        "p",
        "e"
      ],
      [
        "l",
        "ji"
      ],
      [
        "Ġs",
        "ta"
      ],
      [
        "Ġgo",
        "di"
      ],
      [
        "p",
        "u"
      ],
      [
        "z",
        "e"
      ],
      [
        "v",
        "r"
      ],
      [
        "Ġra",
        "z"
      ],
      [
        "Ġs",
        "vo"
      ],
      [
        "m",
        "je"
      ],
      [
        "Ġd",
        "ru"
      ],
      [
        "Å¡",
        "i"
      ],
      [
        "ci",
        "ja"
      ],
      [
        "v",
        "u"
      ],
      [
        "Ġ",
        "ja"
      ],
      [
        "Ġp",
        "ra"
      ],
      [
        "Ġ",
        "Äĩe"
      ],
      [
        "Ġs",
        "ve"
      ],
      [
        "Ġ",
        "va"
      ],
      [
        "Ġ",
        "âĢ"
      ],
      [
        "Ġka",
        "o"
      ],
      [
        "Ġpo",
        "s"
      ],
      [
        "n",
        "ju"
      ],
      [
        "g",
        "e"
      ],
      [
        "Ġ",
        "ti"
      ],
      [
        "l",
        "j"
      ],
      [
        ".",
        "."
      ],
      [
        "Ġ",
        "nje"
      ],
      [
        "Ġko",
        "je"
      ],
      [
        "Å¡",
        "a"
      ],
      [
        "Ġp",
        "u"
      ],
      [
        "Ġ",
        "vo"
      ],
      [
        "ĠÅ¡",
        "to"
      ],
      [
        "s",
        "u"
      ],
      [
        "vi",
        "je"
      ],
      [
        "s",
        "ni"
      ],
      [
        "Ġk",
        "u"
      ],
      [
        "Ġh",
        "rva"
      ],
      [
        "Ġb",
        "a"
      ],
      [
        "Ġs",
        "i"
      ],
      [
        "o",
        "r"
      ],
      [
        "d",
        "ni"
      ],
      [
        "Ġi",
        "li"
      ],
      [
        "no",
        "sti"
      ],
      [
        "h",
        "o"
      ],
      [
        "Ġd",
        "je"
      ],
      [
        "Ġpo",
        "d"
      ],
      [
        "Ġhrva",
        "t"
      ],
      [
        "Ġi",
        "ma"
      ],
      [
        "ko",
        "m"
      ],
      [
        "s",
        "ka"
      ],
      [
        "Ġ",
        "Äį"
      ],
      [
        "r",
        "Å¾a"
      ],
      [
        "Ġna",
        "j"
      ],
      [
        "t",
        "ni"
      ],
      [
        "p",
        "re"
      ],
      [
        "b",
        "u"
      ],
      [
        "Ġd",
        "u"
      ],
      [
        "s",
        "o"
      ],
      [
        "|",
        "|"
      ],
      [
        "Ġm",
        "u"
      ],
      [
        "v",
        "ni"
      ],
      [
        "m",
        "u"
      ],
      [
        "Ġv",
        "la"
      ],
      [
        "Ġb",
        "e"
      ],
      [
        "Äĳ",
        "u"
      ],
      [
        "Ġd",
        "e"
      ],
      [
        "d",
        "no"
      ],
      [
        "d",
        "je"
      ],
      [
        "p",
        "ra"
      ],
      [
        "Ġ",
        "Å¾i"
      ],
      [
        "n",
        "t"
      ],
      [
        "Ġi",
        "s"
      ],
      [
        "h",
        "e"
      ],
      [
        "Ġg",
        "a"
      ],
      [
        "va",
        "nje"
      ],
      [
        "Ġpre",
        "d"
      ],
      [
        "Ġk",
        "ra"
      ],
      [
        "Ġ",
        "ro"
      ],
      [
        "Ġ",
        "\""
      ],
      [
        "Ġ1",
        "9"
      ],
      [
        "r",
        "t"
      ],
      [
        "ra",
        "n"
      ],
      [
        "Ġni",
        "je"
      ],
      [
        "c",
        "u"
      ],
      [
        "Äį",
        "ki"
      ],
      [
        "v",
        "lja"
      ],
      [
        "z",
        "na"
      ],
      [
        "Ġgodi",
        "ne"
      ],
      [
        "Ġz",
        "na"
      ],
      [
        "Ġ",
        "jo"
      ],
      [
        "Ġsa",
        "mo"
      ],
      [
        "h",
        "a"
      ],
      [
        "st",
        "u"
      ],
      [
        "sko",
        "g"
      ],
      [
        "Ġp",
        "e"
      ],
      [
        "Ġp",
        "r"
      ],
      [
        "Ġda",
        "na"
      ],
      [
        "Ġt",
        "re"
      ],
      [
        "z",
        "o"
      ],
      [
        "Ġka",
        "ko"
      ],
      [
        "Ġu",
        "s"
      ],
      [
        "Äĳ",
        "a"
      ],
      [
        "Å¡",
        "te"
      ],
      [
        "v",
        "no"
      ],
      [
        "ski",
        "h"
      ],
      [
        "Ġko",
        "ja"
      ],
      [
        "Ġs",
        "vi"
      ],
      [
        "Å¡",
        "t"
      ],
      [
        "Ġpo",
        "t"
      ],
      [
        "Ġv",
        "r"
      ],
      [
        "Ġt",
        "ra"
      ],
      [
        "Ġt",
        "u"
      ],
      [
        "Äĩ",
        "u"
      ],
      [
        "Ġta",
        "ko"
      ],
      [
        "Å¾",
        "u"
      ],
      [
        "s",
        "te"
      ],
      [
        "Ġp",
        "i"
      ],
      [
        "Ġa",
        "li"
      ],
      [
        "Ġu",
        "z"
      ],
      [
        "Å¡",
        "ta"
      ],
      [
        "Ġ",
        "Äįi"
      ],
      [
        "ko",
        "n"
      ],
      [
        "Ġ",
        "Äįe"
      ],
      [
        "Ġm",
        "je"
      ],
      [
        "n",
        "ta"
      ],
      [
        "f",
        "i"
      ],
      [
        "g",
        "re"
      ],
      [
        "Ġ",
        "lju"
      ],
      [
        "Ġmo",
        "Å¾e"
      ],
      [
        "z",
        "u"
      ],
      [
        "h",
        "i"
      ],
      [
        "Ġ",
        "3"
      ],
      [
        "va",
        "nja"
      ],
      [
        "Ġ",
        "Å¾e"
      ],
      [
        "ri",
        "ja"
      ],
      [
        "li",
        "ko"
      ],
      [
        "Ġz",
        "e"
      ],
      [
        "no",
        "st"
      ],
      [
        "Ġ",
        "lo"
      ],
      [
        "Ġg",
        "la"
      ],
      [
        "Ġf",
        "i"
      ],
      [
        "Ġp",
        "la"
      ],
      [
        "vo",
        "m"
      ],
      [
        "Ġsa",
        "m"
      ],
      [
        "Ġ",
        "w"
      ],
      [
        "Ġ",
        "nji"
      ],
      [
        "Ġko",
        "ri"
      ],
      [
        "Ġa",
        "n"
      ],
      [
        "Ġo",
        "t"
      ],
      [
        "n",
        "g"
      ],
      [
        "ĠâĢ",
        "ĵ"
      ],
      [
        "Ġs",
        "lu"
      ],
      [
        "t",
        "ra"
      ],
      [
        "Äį",
        "u"
      ],
      [
        "Ġko",
        "n"
      ],
      [
        "Ġst",
        "ra"
      ],
      [
        "Ġs",
        "va"
      ],
      [
        "ni",
        "je"
      ],
      [
        "Ġa",
        "u"
      ],
      [
        "Ġ2",
        "00"
      ],
      [
        "Ġnje",
        "go"
      ],
      [
        "Ġb",
        "ro"
      ],
      [
        "Ġ",
        "ru"
      ],
      [
        "re",
        "d"
      ],
      [
        "Ġbi",
        "o"
      ],
      [
        "k",
        "re"
      ],
      [
        "Ġ",
        "|"
      ],
      [
        "Ġb",
        "u"
      ],
      [
        "Ġje",
        "d"
      ],
      [
        "ĠÄį",
        "la"
      ],
      [
        "Ġs",
        "to"
      ],
      [
        "va",
        "ti"
      ],
      [
        "Ġst",
        "va"
      ],
      [
        "i",
        "z"
      ],
      [
        "Ġo",
        "sta"
      ],
      [
        "Ġv",
        "je"
      ],
      [
        "Ġvi",
        "Å¡e"
      ],
      [
        "Ġo",
        "r"
      ],
      [
        "f",
        "e"
      ],
      [
        "Ġo",
        "p"
      ],
      [
        "o",
        "m"
      ],
      [
        "ra",
        "ti"
      ],
      [
        "je",
        "dni"
      ],
      [
        "Ġmo",
        "gu"
      ],
      [
        "s",
        "ku"
      ],
      [
        "st",
        "va"
      ],
      [
        "ru",
        "Äį"
      ],
      [
        "na",
        "l"
      ],
      [
        "ni",
        "ca"
      ],
      [
        "o",
        "n"
      ],
      [
        "Ġna",
        "kon"
      ],
      [
        "Ġ",
        "la"
      ],
      [
        "Ġs",
        "po"
      ],
      [
        "Ġo",
        "vo"
      ],
      [
        "Ġpri",
        "je"
      ],
      [
        "sko",
        "j"
      ],
      [
        "Äį",
        "ko"
      ],
      [
        "Ġv",
        "rije"
      ],
      [
        "t",
        "je"
      ],
      [
        "k",
        "ti"
      ],
      [
        "0",
        "1"
      ],
      [
        "sko",
        "m"
      ],
      [
        "Ġ",
        "ju"
      ],
      [
        "Ġa",
        "ko"
      ],
      [
        "ĠÅ¾i",
        "vo"
      ],
      [
        "ni",
        "ka"
      ],
      [
        "Å¡",
        "ti"
      ],
      [
        "Ġo",
        "n"
      ],
      [
        "Ġra",
        "di"
      ],
      [
        "ni",
        "ci"
      ],
      [
        "da",
        "n"
      ],
      [
        "vi",
        "ma"
      ],
      [
        "Ġ",
        "ce"
      ],
      [
        "Ġve",
        "li"
      ],
      [
        "li",
        "je"
      ],
      [
        "Äį",
        "ke"
      ],
      [
        "la",
        "zi"
      ],
      [
        "te",
        "r"
      ],
      [
        "Ġza",
        "gre"
      ],
      [
        "_",
        "_"
      ],
      [
        "jo",
        "m"
      ],
      [
        "Ġt",
        "he"
      ],
      [
        "Ġ",
        "rije"
      ],
      [
        "Ġ",
        "le"
      ],
      [
        "Ġ",
        "ci"
      ],
      [
        "Ġ",
        "ri"
      ],
      [
        "Ġos",
        "o"
      ],
      [
        "Ġk",
        "nji"
      ],
      [
        "Ġs",
        "o"
      ],
      [
        "Ġpre",
        "ma"
      ],
      [
        "Ġo",
        "bi"
      ],
      [
        "Ġc",
        "r"
      ],
      [
        "g",
        "la"
      ],
      [
        "s",
        "no"
      ],
      [
        "ta",
        "k"
      ],
      [
        "n",
        "ti"
      ],
      [
        "v",
        "lje"
      ],
      [
        "Ġpo",
        "sta"
      ],
      [
        "Ġt",
        "r"
      ],
      [
        "g",
        "le"
      ],
      [
        "Ġze",
        "m"
      ],
      [
        "re",
        "me"
      ],
      [
        "Ġ",
        "cije"
      ],
      [
        "st",
        "vo"
      ],
      [
        "Ġpro",
        "iz"
      ],
      [
        "..",
        "."
      ],
      [
        "go",
        "vo"
      ],
      [
        "Ġbi",
        "ti"
      ],
      [
        ")",
        ","
      ],
      [
        "te",
        "lj"
      ],
      [
        "va",
        "li"
      ],
      [
        "b",
        "ro"
      ],
      [
        "nje",
        "m"
      ],
      [
        "Ġje",
        "r"
      ],
      [
        "no",
        "j"
      ],
      [
        ")",
        "."
      ],
      [
        "Ġz",
        "bo"
      ],
      [
        "Ġ",
        "Å¾u"
      ],
      [
        "va",
        "n"
      ],
      [
        "Ġs",
        "mo"
      ],
      [
        "Ġo",
        "ko"
      ],
      [
        "s",
        "po"
      ],
      [
        "ni",
        "ce"
      ],
      [
        "ci",
        "ju"
      ],
      [
        "Ġti",
        "je"
      ],
      [
        "Ġk",
        "ri"
      ],
      [
        "ĠÅ¡",
        "ko"
      ],
      [
        "d",
        "ra"
      ],
      [
        "Ġh",
        "o"
      ],
      [
        "ski",
        "m"
      ],
      [
        "Ġjo",
        "Å¡"
      ],
      [
        "Ġme",
        "Äĳu"
      ],
      [
        "Ġproiz",
        "vo"
      ],
      [
        "st",
        "ra"
      ],
      [
        "vi",
        "Äĩ"
      ],
      [
        "v",
        "ne"
      ],
      [
        "v",
        "la"
      ],
      [
        "Ġ",
        "4"
      ],
      [
        "t",
        "ka"
      ],
      [
        "f",
        "or"
      ],
      [
        "Ġf",
        "a"
      ],
      [
        "Ġs",
        "tu"
      ],
      [
        "Ġbi",
        "lo"
      ],
      [
        "to",
        "m"
      ],
      [
        "Ġd",
        "rÅ¾a"
      ],
      [
        "Ġdru",
        "gi"
      ],
      [
        "t",
        "no"
      ],
      [
        "Ġdi",
        "je"
      ],
      [
        "Ġu",
        "pra"
      ],
      [
        "Ġve",
        "Äĩ"
      ],
      [
        "zi",
        "ra"
      ],
      [
        "ga",
        "ni"
      ],
      [
        "Ġka",
        "d"
      ],
      [
        "Ġe",
        "u"
      ],
      [
        "jo",
        "j"
      ],
      [
        "Ġiz",
        "ra"
      ],
      [
        "n",
        "ci"
      ],
      [
        "Ġpo",
        "li"
      ],
      [
        "Ġau",
        "to"
      ],
      [
        "ro",
        "m"
      ],
      [
        "k",
        "la"
      ],
      [
        "Ġ",
        "ca"
      ],
      [
        "Ġzbo",
        "g"
      ],
      [
        "Äį",
        "no"
      ],
      [
        "Ġpo",
        "Äįe"
      ],
      [
        "mi",
        "je"
      ],
      [
        "Ġos",
        "no"
      ],
      [
        "re",
        "di"
      ],
      [
        "ju",
        "Äĩi"
      ],
      [
        "t",
        "ro"
      ],
      [
        "Ġs",
        "la"
      ],
      [
        "Ġmo",
        "ra"
      ],
      [
        "Ġsvo",
        "je"
      ],
      [
        "Ġtre",
        "ba"
      ],
      [
        "ni",
        "k"
      ],
      [
        "Ġsa",
        "d"
      ],
      [
        "Ġor",
        "gani"
      ],
      [
        "Ġa",
        "r"
      ],
      [
        "b",
        "li"
      ],
      [
        "re",
        "Äĳe"
      ],
      [
        "vi",
        "m"
      ],
      [
        "Ġod",
        "no"
      ],
      [
        "Ġod",
        "rÅ¾a"
      ],
      [
        "Ġpos",
        "lo"
      ],
      [
        "a",
        "l"
      ],
      [
        "s",
        "la"
      ],
      [
        "Ġg",
        "e"
      ],
      [
        "vi",
        "h"
      ],
      [
        "Ġ",
        "5"
      ],
      [
        "p",
        "ri"
      ],
      [
        "Ġpo",
        "sto"
      ],
      [
        "Ġbi",
        "la"
      ],
      [
        "Ġgodi",
        "na"
      ],
      [
        "Ġs",
        "vje"
      ],
      [
        "Ġo",
        "si"
      ],
      [
        "Ġ",
        "Äįa"
      ],
      [
        "Ġt",
        "vr"
      ],
      [
        "Ġvla",
        "sni"
      ],
      [
        "âĢ",
        "ľ"
      ],
      [
        "ku",
        "p"
      ],
      [
        "n",
        "j"
      ],
      [
        "o",
        "nal"
      ],
      [
        "Ġs",
        "je"
      ],
      [
        "Ġnji",
        "ho"
      ],
      [
        "p",
        "ro"
      ],
      [
        "Ġgra",
        "d"
      ],
      [
        "Ġko",
        "d"
      ],
      [
        "s",
        "li"
      ],
      [
        "vo",
        "j"
      ],
      [
        "do",
        "m"
      ],
      [
        "Ġpod",
        "ruÄį"
      ],
      [
        "Ġo",
        "va"
      ],
      [
        "Ġs",
        "lo"
      ],
      [
        "da",
        "r"
      ],
      [
        "ci",
        "ma"
      ],
      [
        "Ġt",
        "ri"
      ],
      [
        "te",
        "lji"
      ],
      [
        "Äįi",
        "n"
      ],
      [
        "vo",
        "ri"
      ],
      [
        "Ġf",
        "o"
      ],
      [
        "Ġpo",
        "se"
      ],
      [
        "Ġa",
        "l"
      ],
      [
        "Ġka",
        "da"
      ],
      [
        "ra",
        "nje"
      ],
      [
        "di",
        "o"
      ],
      [
        "Ġk",
        "r"
      ],
      [
        "pi",
        "sa"
      ],
      [
        "Ġ",
        ":"
      ],
      [
        "le",
        "k"
      ],
      [
        "Ġne",
        "ko"
      ],
      [
        "Ġna",
        "sta"
      ],
      [
        "Ġh",
        "a"
      ],
      [
        "Ġvrije",
        "me"
      ],
      [
        "ni",
        "ma"
      ],
      [
        "n",
        "ski"
      ],
      [
        "Ġdru",
        "Å¡t"
      ],
      [
        "v",
        "na"
      ],
      [
        "Ġna",
        "s"
      ],
      [
        "-",
        "-"
      ],
      [
        "Ġo",
        "ba"
      ],
      [
        "Ġdo",
        "k"
      ],
      [
        "d",
        "ne"
      ],
      [
        "Ġdo",
        "bi"
      ],
      [
        "r",
        "ni"
      ],
      [
        "Ġs",
        "vije"
      ],
      [
        "na",
        "k"
      ],
      [
        "Äį",
        "ka"
      ],
      [
        "Å¡",
        "ko"
      ],
      [
        "Å¡",
        "to"
      ],
      [
        "Ġbe",
        "z"
      ],
      [
        "Ġpo",
        "mo"
      ],
      [
        "b",
        "no"
      ],
      [
        "ĠâĢ",
        "ŀ"
      ],
      [
        "r",
        "no"
      ],
      [
        "Ġza",
        "h"
      ],
      [
        "Ġm",
        "la"
      ],
      [
        "lo",
        "m"
      ],
      [
        "Ġgra",
        "Äĳe"
      ],
      [
        "Ġp",
        "je"
      ],
      [
        "Ġta",
        "j"
      ],
      [
        "Ġna",
        "d"
      ],
      [
        "b",
        "ra"
      ],
      [
        "Ġk",
        "i"
      ],
      [
        "d",
        "ru"
      ],
      [
        "vi",
        "ti"
      ],
      [
        "Ġh",
        "e"
      ],
      [
        "Ġhrvat",
        "ske"
      ],
      [
        "Ġs",
        "r"
      ],
      [
        "lo",
        "Å¾"
      ],
      [
        "Ġk",
        "ro"
      ],
      [
        "Ġd",
        "r"
      ],
      [
        "ci",
        "j"
      ],
      [
        "Ġ1",
        "8"
      ],
      [
        ".",
        ","
      ],
      [
        "Ġ",
        "lu"
      ],
      [
        "Ġdje",
        "la"
      ],
      [
        "Ġpro",
        "sto"
      ],
      [
        "Ġu",
        "mje"
      ],
      [
        "je",
        "k"
      ],
      [
        "Ġi",
        "sto"
      ],
      [
        "Ġpra",
        "vo"
      ],
      [
        "k",
        "ri"
      ],
      [
        "va",
        "ra"
      ],
      [
        "ji",
        "m"
      ],
      [
        "Ġi",
        "h"
      ],
      [
        "Ġ",
        "r"
      ],
      [
        "Ġh",
        "i"
      ],
      [
        "vi",
        "o"
      ],
      [
        "p",
        "li"
      ],
      [
        "Ġma",
        "r"
      ],
      [
        "k",
        "ra"
      ],
      [
        "k",
        "lju"
      ],
      [
        "n",
        "d"
      ],
      [
        "Ġiz",
        "vo"
      ],
      [
        "va",
        "o"
      ],
      [
        "Ġpot",
        "re"
      ],
      [
        "ci",
        "ji"
      ],
      [
        "ti",
        "v"
      ],
      [
        "ti",
        "m"
      ],
      [
        "Ġdana",
        "s"
      ],
      [
        "st",
        "ri"
      ],
      [
        "Ġob",
        "ra"
      ],
      [
        "Ġs",
        "li"
      ],
      [
        "Ġod",
        "lu"
      ],
      [
        "Ġbro",
        "j"
      ],
      [
        "for",
        "ma"
      ],
      [
        "Ġpri",
        "ja"
      ],
      [
        "Ġg",
        "dje"
      ],
      [
        "âĢ",
        "Ŀ"
      ],
      [
        "ĠâĢ",
        "ľ"
      ],
      [
        "Ġ",
        "6"
      ],
      [
        "Ġ",
        "n"
      ],
      [
        "Ġpra",
        "va"
      ],
      [
        "ĠÅ¾u",
        "pa"
      ],
      [
        "Ġ2",
        "01"
      ],
      [
        "Ġu",
        "po"
      ],
      [
        "Ġza",
        "ko"
      ],
      [
        "pa",
        "da"
      ],
      [
        "l",
        "tu"
      ],
      [
        "Ġd",
        "va"
      ],
      [
        "Ġpred",
        "sta"
      ],
      [
        "Ġdi",
        "o"
      ],
      [
        "st",
        "ve"
      ],
      [
        "k",
        "lo"
      ],
      [
        "kre",
        "tni"
      ],
      [
        "Ġpa",
        "r"
      ],
      [
        "v",
        "nih"
      ],
      [
        "n",
        "ka"
      ],
      [
        "Ġje",
        "dan"
      ],
      [
        "vo",
        "re"
      ],
      [
        "t",
        "ko"
      ],
      [
        "ĠÅ¡",
        "i"
      ],
      [
        "vo",
        "g"
      ],
      [
        "stu",
        "p"
      ],
      [
        "n",
        "ske"
      ],
      [
        "Ġzem",
        "lji"
      ],
      [
        "Ġra",
        "do"
      ],
      [
        "Ġk",
        "re"
      ],
      [
        "Ġpri",
        "mje"
      ],
      [
        "ra",
        "ni"
      ],
      [
        "Ġiz",
        "a"
      ],
      [
        "Ġlju",
        "di"
      ],
      [
        "c",
        "om"
      ],
      [
        "Ġ",
        "nu"
      ],
      [
        "Ġto",
        "ga"
      ],
      [
        "ta",
        "r"
      ],
      [
        "Ġko",
        "m"
      ],
      [
        "Ġraz",
        "li"
      ],
      [
        "Ġra",
        "d"
      ],
      [
        "Ġslu",
        "Å¾"
      ],
      [
        "c",
        "o"
      ],
      [
        "ma",
        "n"
      ],
      [
        "h",
        "u"
      ],
      [
        "Ġo",
        "f"
      ],
      [
        "Ġne",
        "kretni"
      ],
      [
        "Äįki",
        "h"
      ],
      [
        "Ġ",
        "'"
      ],
      [
        "Ġ1",
        "5"
      ],
      [
        "je",
        "m"
      ],
      [
        "Ġna",
        "Äįin"
      ],
      [
        "va",
        "ju"
      ],
      [
        "Ġf",
        "e"
      ],
      [
        "p",
        "je"
      ],
      [
        "vi",
        "na"
      ],
      [
        "Ġd",
        "ra"
      ],
      [
        "Ġs",
        "te"
      ],
      [
        "Ġan",
        "d"
      ],
      [
        "Ġo",
        "na"
      ],
      [
        "to",
        "r"
      ],
      [
        "Ġs",
        "na"
      ],
      [
        "Ġi",
        "m"
      ],
      [
        "Ġi",
        "de"
      ],
      [
        "Ġje",
        "di"
      ],
      [
        "Ġpro",
        "gra"
      ],
      [
        "Ġza",
        "Å¡ti"
      ],
      [
        "Ġs",
        "ti"
      ],
      [
        "Ġda",
        "n"
      ],
      [
        "go",
        "di"
      ],
      [
        "Ġpos",
        "je"
      ],
      [
        "s",
        "je"
      ],
      [
        "t",
        "ne"
      ],
      [
        "ve",
        "r"
      ],
      [
        "Ġku",
        "ltu"
      ],
      [
        "Ġ",
        "Â"
      ],
      [
        "lo",
        "g"
      ],
      [
        "Ġne",
        "ma"
      ],
      [
        "me",
        "nta"
      ],
      [
        "Äĳe",
        "r"
      ],
      [
        "ka",
        "o"
      ],
      [
        "Ġne",
        "go"
      ],
      [
        "te",
        "lja"
      ],
      [
        "Ġb",
        "r"
      ],
      [
        "Ġin",
        "te"
      ],
      [
        "ne",
        "r"
      ],
      [
        "gra",
        "d"
      ],
      [
        "t",
        "ri"
      ],
      [
        "Ġin",
        "forma"
      ],
      [
        "Ġeu",
        "ro"
      ],
      [
        "Ġdru",
        "go"
      ],
      [
        "Ġtako",
        "Äĳer"
      ],
      [
        "l",
        "no"
      ],
      [
        "Ġko",
        "ju"
      ],
      [
        "Ġje",
        "dno"
      ],
      [
        "r",
        "na"
      ],
      [
        "Ð",
        "¸"
      ],
      [
        "Äĳ",
        "i"
      ],
      [
        "b",
        "le"
      ],
      [
        "Ġte",
        "k"
      ],
      [
        "__",
        "__"
      ],
      [
        "Ġg",
        "u"
      ],
      [
        "st",
        "ru"
      ],
      [
        "Ġsu",
        "sta"
      ],
      [
        "Ġli",
        "je"
      ],
      [
        "Ġo",
        "ve"
      ],
      [
        "i",
        "n"
      ],
      [
        "Äįko",
        "g"
      ],
      [
        "r",
        "ta"
      ],
      [
        "Ġ19",
        "9"
      ],
      [
        "Ġ1",
        "0"
      ],
      [
        "Ġne",
        "ki"
      ],
      [
        "Ġte",
        "h"
      ],
      [
        "ni",
        "ji"
      ],
      [
        "Ġdje",
        "lo"
      ],
      [
        "Ġs",
        "ma"
      ],
      [
        "Ġv",
        "reme"
      ],
      [
        "Ġi",
        "me"
      ],
      [
        "Ġdo",
        "bro"
      ],
      [
        "Ġvo",
        "j"
      ],
      [
        "Ġvla",
        "sti"
      ],
      [
        "Ġza",
        "po"
      ],
      [
        "ci",
        "onal"
      ],
      [
        "Ġni",
        "su"
      ],
      [
        "re",
        "n"
      ],
      [
        "Äį",
        "ne"
      ],
      [
        "Ġpr",
        "vi"
      ],
      [
        "2",
        "00"
      ],
      [
        "Å¡",
        "nje"
      ],
      [
        "v",
        "nom"
      ],
      [
        "Ġpo",
        "zna"
      ],
      [
        "go",
        "r"
      ],
      [
        "Ġgra",
        "da"
      ],
      [
        "Ġpo",
        "pu"
      ],
      [
        "ro",
        "d"
      ],
      [
        "Ġs",
        "red"
      ],
      [
        "Ġpo",
        "ve"
      ],
      [
        "k",
        "ve"
      ],
      [
        "Ġbi",
        "li"
      ],
      [
        "Ġstva",
        "ri"
      ],
      [
        "me",
        "Äĳu"
      ],
      [
        "v",
        "nog"
      ],
      [
        "Ġb",
        "ri"
      ],
      [
        "no",
        "va"
      ],
      [
        "Ġo",
        "pe"
      ],
      [
        "Ġpo",
        "ja"
      ],
      [
        "Ġza",
        "jedni"
      ],
      [
        "Ġiz",
        "loÅ¾"
      ],
      [
        "Ġsvje",
        "t"
      ],
      [
        "vo",
        "lj"
      ],
      [
        "gle",
        "da"
      ],
      [
        "Ġs",
        "pa"
      ],
      [
        "ĠÄį",
        "u"
      ],
      [
        "Ġu",
        "Äįi"
      ],
      [
        "Ġob",
        "ja"
      ],
      [
        "Ġu",
        "re"
      ],
      [
        "ĠÄįla",
        "nak"
      ],
      [
        "l",
        "ne"
      ],
      [
        "Ġ",
        "7"
      ],
      [
        "na",
        "ma"
      ],
      [
        "Ġo",
        "k"
      ],
      [
        "sta",
        "r"
      ],
      [
        "Ġte",
        "me"
      ],
      [
        "ĠÄį",
        "o"
      ],
      [
        "Ġkro",
        "z"
      ],
      [
        "p",
        "la"
      ],
      [
        "Ð",
        "µ"
      ],
      [
        "Ġsa",
        "ti"
      ],
      [
        "Ð",
        "°"
      ],
      [
        "di",
        "ti"
      ],
      [
        "r",
        "ne"
      ],
      [
        "Ġiz",
        "meÄĳu"
      ],
      [
        "Ġ",
        "lje"
      ],
      [
        "Ġd",
        "vo"
      ],
      [
        "Ġma",
        "lo"
      ],
      [
        "Ġhrvat",
        "skoj"
      ],
      [
        "c",
        "h"
      ],
      [
        "li",
        "ma"
      ],
      [
        "Ġslu",
        "Äįa"
      ],
      [
        "Ġ2",
        "0"
      ],
      [
        "s",
        "jedni"
      ],
      [
        "va",
        "nju"
      ],
      [
        "Ġpo",
        "du"
      ],
      [
        "ĠÅ¡",
        "e"
      ],
      [
        "Ġo",
        "pre"
      ],
      [
        "t",
        "ke"
      ],
      [
        "lo",
        "gi"
      ],
      [
        "Ġvr",
        "lo"
      ],
      [
        "je",
        "di"
      ],
      [
        "Ġna",
        "lazi"
      ],
      [
        "Ġpo",
        "zi"
      ],
      [
        "Ġs",
        "mje"
      ],
      [
        "Å¡",
        "nji"
      ],
      [
        "ni",
        "ja"
      ],
      [
        "Ġu",
        "dru"
      ],
      [
        "Ġme",
        "di"
      ],
      [
        "Ġsvo",
        "jim"
      ],
      [
        "Ġkori",
        "sti"
      ],
      [
        "Ġ",
        "8"
      ],
      [
        "Ġi",
        "gra"
      ],
      [
        "Ġi",
        "sti"
      ],
      [
        "Ġmu",
        "ze"
      ],
      [
        "Ġus",
        "lu"
      ],
      [
        "Ġzagre",
        "ba"
      ],
      [
        "l",
        "ni"
      ],
      [
        "\"",
        ","
      ],
      [
        "vr",
        "Å¡i"
      ],
      [
        "Ġsvo",
        "j"
      ],
      [
        "Ġu",
        "vje"
      ],
      [
        "lo",
        "va"
      ],
      [
        "ka",
        "za"
      ],
      [
        "Ġkoji",
        "ma"
      ],
      [
        "Ġma",
        "te"
      ],
      [
        "Ġna",
        "m"
      ],
      [
        "no",
        "vi"
      ],
      [
        "Ġneko",
        "liko"
      ],
      [
        "ri",
        "o"
      ],
      [
        "la",
        "n"
      ],
      [
        "Ġt",
        "ro"
      ],
      [
        "00",
        "0"
      ],
      [
        "Ġorgani",
        "za"
      ],
      [
        "Ġfi",
        "l"
      ],
      [
        "Ġva",
        "m"
      ],
      [
        "s",
        "re"
      ],
      [
        "Ġsa",
        "da"
      ],
      [
        "Ġjed",
        "na"
      ],
      [
        "Ġu",
        "Äįe"
      ],
      [
        "Ġb",
        "ra"
      ],
      [
        "n",
        "stve"
      ],
      [
        "v",
        "reme"
      ],
      [
        "me",
        "t"
      ],
      [
        "Ġve",
        "Äĩi"
      ],
      [
        "Ġpro",
        "da"
      ],
      [
        "Ġsvi",
        "h"
      ],
      [
        "tje",
        "ca"
      ],
      [
        "vi",
        "n"
      ],
      [
        "Ġfo",
        "to"
      ],
      [
        "Ġod",
        "reÄĳe"
      ],
      [
        "me",
        "n"
      ],
      [
        "bo",
        "ra"
      ],
      [
        "ri",
        "ma"
      ],
      [
        "Ġk",
        "la"
      ],
      [
        "Ġpro",
        "tiv"
      ],
      [
        "Äį",
        "ni"
      ],
      [
        "Ġveli",
        "ki"
      ],
      [
        "Ġ",
        "9"
      ],
      [
        "Å¡",
        "ki"
      ],
      [
        "ri",
        "sti"
      ],
      [
        "Ġje",
        "zi"
      ],
      [
        "Ġne",
        "ka"
      ],
      [
        "Ġin",
        "ter"
      ],
      [
        "n",
        "ce"
      ],
      [
        "Ġv",
        "ra"
      ],
      [
        "vije",
        "k"
      ],
      [
        "Ġvlasni",
        "Å¡t"
      ],
      [
        "Ġo",
        "no"
      ],
      [
        "Ġ",
        "Ñ"
      ],
      [
        "Ġp",
        "lo"
      ],
      [
        "Ġna",
        "zi"
      ],
      [
        "s",
        "ne"
      ],
      [
        "l",
        "ta"
      ],
      [
        "Ġnaj",
        "bo"
      ],
      [
        "li",
        "m"
      ],
      [
        "Ġpoli",
        "ti"
      ],
      [
        "Ġpra",
        "vi"
      ],
      [
        "Å¡",
        "ka"
      ],
      [
        "Ġvi",
        "so"
      ],
      [
        "t",
        "vr"
      ],
      [
        "Ġpo",
        "vije"
      ],
      [
        "b",
        "ri"
      ],
      [
        "li",
        "ja"
      ],
      [
        "k",
        "le"
      ],
      [
        "Ġta",
        "da"
      ],
      [
        "a",
        "n"
      ],
      [
        "Å¾",
        "no"
      ],
      [
        "Äĳe",
        "nje"
      ],
      [
        "ĠÄįo",
        "vje"
      ],
      [
        "ni",
        "ti"
      ],
      [
        "Ġgo",
        "spo"
      ],
      [
        "me",
        "ri"
      ],
      [
        "t",
        "na"
      ],
      [
        "Ġmo",
        "de"
      ],
      [
        "Ġe",
        "lek"
      ],
      [
        "Ġos",
        "je"
      ],
      [
        "Ġtije",
        "kom"
      ],
      [
        "Å¡a",
        "o"
      ],
      [
        "Ġus",
        "pje"
      ],
      [
        "Ġdru",
        "ge"
      ],
      [
        "Ġpred",
        "sjedni"
      ],
      [
        "Äįi",
        "ti"
      ],
      [
        "bo",
        "r"
      ],
      [
        "Ġvi",
        "je"
      ],
      [
        "va",
        "la"
      ],
      [
        "Ġra",
        "s"
      ],
      [
        "Ġf",
        "or"
      ],
      [
        "stu",
        "pa"
      ],
      [
        "Ġpi",
        "ta"
      ],
      [
        "ni",
        "ra"
      ],
      [
        "ji",
        "h"
      ],
      [
        "Ġo",
        "ni"
      ],
      [
        "Ġgla",
        "z"
      ],
      [
        "n",
        "di"
      ],
      [
        "Ġna",
        "Å¡e"
      ],
      [
        "Ġz",
        "dra"
      ],
      [
        "Ġtr",
        "go"
      ],
      [
        "Ġpro",
        "ble"
      ],
      [
        "Ġc",
        "o"
      ],
      [
        "ko",
        "va"
      ],
      [
        "Ġproizvo",
        "d"
      ],
      [
        "Ġto",
        "me"
      ],
      [
        "n",
        "k"
      ],
      [
        "Ġpo",
        "da"
      ],
      [
        "Ġm",
        "nog"
      ],
      [
        "Ġod",
        "go"
      ],
      [
        "Ġni",
        "ka"
      ],
      [
        "Ġk",
        "vali"
      ],
      [
        "Ġar",
        "hi"
      ],
      [
        "a",
        "ko"
      ],
      [
        "Ġr",
        "je"
      ],
      [
        "Ġno",
        "vi"
      ],
      [
        "ko",
        "vi"
      ],
      [
        "n",
        "da"
      ],
      [
        "Ġza",
        "pre"
      ],
      [
        "Ġkoje",
        "m"
      ],
      [
        "l",
        "l"
      ],
      [
        "ne",
        "ra"
      ],
      [
        "t",
        "nosti"
      ],
      [
        "Ġs",
        "pe"
      ],
      [
        "Ġpo",
        "no"
      ],
      [
        "Ġodno",
        "sno"
      ],
      [
        "k",
        "r"
      ],
      [
        "Ġ1",
        "2"
      ],
      [
        "ra",
        "k"
      ],
      [
        "Ġz",
        "i"
      ],
      [
        "ti",
        "ma"
      ],
      [
        "t",
        "ku"
      ],
      [
        "Ġf",
        "ran"
      ],
      [
        "p",
        "le"
      ],
      [
        "2",
        "01"
      ],
      [
        "Ġpro",
        "jek"
      ],
      [
        "Ġto",
        "m"
      ],
      [
        "Ġv",
        "u"
      ],
      [
        "Äį",
        "kom"
      ],
      [
        "Ġ",
        "0"
      ],
      [
        "ma",
        "ti"
      ],
      [
        "Ġb",
        "la"
      ],
      [
        "nu",
        "ti"
      ],
      [
        "Ġst",
        "ruÄį"
      ],
      [
        "ve",
        "de"
      ],
      [
        "no",
        "si"
      ],
      [
        "Å¡",
        "Äĩe"
      ],
      [
        "ga",
        "o"
      ],
      [
        "Ġpre",
        "t"
      ],
      [
        "1",
        "9"
      ],
      [
        "b",
        "lje"
      ],
      [
        "Ġova",
        "j"
      ],
      [
        "Ð",
        "¾"
      ],
      [
        "je",
        "dno"
      ],
      [
        "Ġs",
        "ku"
      ],
      [
        "Ġ1",
        "6"
      ],
      [
        "Ġre",
        "pu"
      ],
      [
        "Ġmi",
        "ni"
      ],
      [
        "h",
        "va"
      ],
      [
        "Ġ",
        ","
      ],
      [
        "f",
        "a"
      ],
      [
        "va",
        "na"
      ],
      [
        "Ġk",
        "lu"
      ],
      [
        "Ġpre",
        "ko"
      ],
      [
        "Ġ200",
        "7"
      ],
      [
        "Ġi",
        "stra"
      ],
      [
        "Ġsad",
        "rÅ¾a"
      ],
      [
        "Ġ1",
        "7"
      ],
      [
        "ti",
        "on"
      ],
      [
        "Ġg",
        "r"
      ],
      [
        "Ġpri",
        "ro"
      ],
      [
        "r",
        "ti"
      ],
      [
        "Å¡i",
        "Äĩ"
      ],
      [
        "Ġot",
        "vore"
      ],
      [
        "ra",
        "na"
      ],
      [
        "ĠÅ¾ivo",
        "t"
      ],
      [
        "Ġima",
        "ju"
      ],
      [
        "Ġpu",
        "t"
      ],
      [
        "n",
        "sko"
      ],
      [
        "Ġre",
        "gi"
      ],
      [
        "Ġmje",
        "se"
      ],
      [
        "Ġk",
        "e"
      ],
      [
        "mo",
        "gu"
      ],
      [
        "Ġzagre",
        "b"
      ],
      [
        "Ġd",
        "vije"
      ],
      [
        "Ġrepu",
        "bli"
      ],
      [
        "Ġdo",
        "ma"
      ],
      [
        "Ġdo",
        "da"
      ],
      [
        "Ġlju",
        "ba"
      ],
      [
        "Ġs",
        "re"
      ],
      [
        "li",
        "za"
      ],
      [
        "Ġg",
        "ru"
      ],
      [
        "st",
        "vu"
      ],
      [
        "Ġu",
        "vijek"
      ],
      [
        "Ġne",
        "o"
      ],
      [
        "Ġsa",
        "sta"
      ],
      [
        "Ġli",
        "ce"
      ],
      [
        "Ġgra",
        "di"
      ],
      [
        "Ġpos",
        "lje"
      ],
      [
        "Å¡",
        "u"
      ],
      [
        "la",
        "ze"
      ],
      [
        "Ġsva",
        "ko"
      ],
      [
        "Â",
        "»"
      ],
      [
        "sni",
        "je"
      ],
      [
        "s",
        "na"
      ],
      [
        "Ġ1",
        "1"
      ],
      [
        "da",
        "e"
      ],
      [
        "Ġsvo",
        "ju"
      ],
      [
        "d",
        "na"
      ],
      [
        "v",
        "nim"
      ],
      [
        "j",
        "te"
      ],
      [
        "Ġpri",
        "li"
      ],
      [
        "b",
        "je"
      ],
      [
        "Ġo",
        "to"
      ],
      [
        "Ġmje",
        "sto"
      ],
      [
        "--",
        "--"
      ],
      [
        "a",
        "r"
      ],
      [
        "Ġmate",
        "rija"
      ],
      [
        "s",
        "s"
      ],
      [
        "Ġpo",
        "nu"
      ],
      [
        "Ġre",
        "a"
      ],
      [
        "\"",
        "."
      ],
      [
        "i",
        "l"
      ],
      [
        "Ġf",
        "u"
      ],
      [
        "Ġstu",
        "de"
      ],
      [
        "Å¡",
        "Äĩu"
      ],
      [
        "Ġtre",
        "nu"
      ],
      [
        "Ġo",
        "ne"
      ],
      [
        "do",
        "va"
      ],
      [
        "Äįa",
        "n"
      ],
      [
        "Ġsi",
        "gu"
      ],
      [
        "ĠpodruÄį",
        "ju"
      ],
      [
        "ĠÂ",
        "«"
      ],
      [
        "Ġs",
        "m"
      ],
      [
        "ti",
        "o"
      ],
      [
        "sa",
        "m"
      ],
      [
        "Ġu",
        "lo"
      ],
      [
        "la",
        "z"
      ],
      [
        "Ġpo",
        "z"
      ],
      [
        "govo",
        "r"
      ],
      [
        "v",
        "nosti"
      ],
      [
        "Ġp",
        "ru"
      ],
      [
        "Ġpodu",
        "ze"
      ],
      [
        "Ġz",
        "la"
      ],
      [
        "ve",
        "n"
      ],
      [
        "li",
        "h"
      ],
      [
        "st",
        "ro"
      ],
      [
        "Ġt",
        "je"
      ],
      [
        "Ġ1",
        "4"
      ],
      [
        "Ġoso",
        "ba"
      ],
      [
        "Ġne",
        "Å¡to"
      ],
      [
        "me",
        "ta"
      ],
      [
        "vr",
        "Å¡e"
      ],
      [
        "Ñ",
        "Ģ"
      ],
      [
        "ĠÅ¾e",
        "li"
      ],
      [
        "s",
        "pe"
      ],
      [
        "ni",
        "o"
      ],
      [
        "Ġko",
        "joj"
      ],
      [
        "ga",
        "Äĳa"
      ],
      [
        "Ġkvali",
        "te"
      ],
      [
        "Å¡",
        "no"
      ],
      [
        "Ġta",
        "k"
      ],
      [
        "Ġop",
        "Äĩi"
      ],
      [
        "Ġne",
        "po"
      ],
      [
        "ĠÅ¡",
        "u"
      ],
      [
        "p",
        "s"
      ],
      [
        "Å¡",
        "tu"
      ],
      [
        "Ġpo",
        "kre"
      ],
      [
        "Äįa",
        "j"
      ],
      [
        "Ġa",
        "k"
      ],
      [
        "Ġa",
        "pa"
      ],
      [
        "Ġradi",
        "o"
      ],
      [
        "Ġpose",
        "bno"
      ],
      [
        "Äĳe",
        "n"
      ],
      [
        "Ġtra",
        "di"
      ],
      [
        "Ġpu",
        "ta"
      ],
      [
        "Ġosi",
        "m"
      ],
      [
        "Ġovo",
        "g"
      ],
      [
        "Ġi",
        "ako"
      ],
      [
        "Ġz",
        "ra"
      ],
      [
        "Ġm",
        "no"
      ],
      [
        "di",
        "je"
      ],
      [
        "Ġ1",
        "3"
      ],
      [
        "Ġlo",
        "ka"
      ],
      [
        "to",
        "ri"
      ],
      [
        "Ġa",
        "kti"
      ],
      [
        "Ġpre",
        "da"
      ],
      [
        "Ġnji",
        "h"
      ],
      [
        "Ġbu",
        "du"
      ],
      [
        "vo",
        "di"
      ],
      [
        "Äįi",
        "Äĩ"
      ],
      [
        "Ġma",
        "j"
      ],
      [
        "Ġa",
        "meri"
      ],
      [
        "Ġmi",
        "li"
      ],
      [
        "n",
        "s"
      ],
      [
        "Ġob",
        "li"
      ],
      [
        "Ġvje",
        "ro"
      ],
      [
        "r",
        "ma"
      ],
      [
        "Ġstva",
        "r"
      ],
      [
        "Ġpose",
        "b"
      ],
      [
        "ka",
        "ta"
      ],
      [
        "Ġgo",
        "vori"
      ],
      [
        "Ġkon",
        "ce"
      ],
      [
        "Ġvo",
        "di"
      ],
      [
        "Ġmogu",
        "Äĩ"
      ],
      [
        "Ġc",
        "om"
      ],
      [
        "Ġgra",
        "Äĳa"
      ],
      [
        "Ġovo",
        "ga"
      ],
      [
        "Å¡",
        "nja"
      ],
      [
        "gra",
        "fi"
      ],
      [
        "Ġosi",
        "gu"
      ],
      [
        "Å¡",
        "ke"
      ],
      [
        "vi",
        "ne"
      ],
      [
        "Ġsto",
        "lje"
      ],
      [
        "1",
        "0"
      ],
      [
        "mi",
        "na"
      ],
      [
        "mi",
        "ra"
      ],
      [
        "pa",
        "k"
      ],
      [
        "pi",
        "s"
      ],
      [
        "Ġce",
        "nt"
      ],
      [
        "c",
        "k"
      ],
      [
        "Ġ",
        "Ð"
      ],
      [
        "Ġra",
        "Äįu"
      ],
      [
        "Ġnekretni",
        "ne"
      ],
      [
        "ĠmoÅ¾e",
        "te"
      ],
      [
        "do",
        "vi"
      ],
      [
        "p",
        "r"
      ],
      [
        "Ġno",
        "va"
      ],
      [
        "Ġpot",
        "pu"
      ],
      [
        "Ġslo",
        "bo"
      ],
      [
        "Ġbi",
        "je"
      ],
      [
        "a",
        "ti"
      ],
      [
        "Ġk",
        "ru"
      ],
      [
        "Ġgo",
        "to"
      ],
      [
        "Ġnaj",
        "ve"
      ],
      [
        "Ġzah",
        "tje"
      ],
      [
        "Ġzako",
        "na"
      ],
      [
        "Ġu",
        "nu"
      ],
      [
        "Ġsu",
        "ra"
      ],
      [
        "Ġw",
        "e"
      ],
      [
        "g",
        "li"
      ],
      [
        "Ġna",
        "mje"
      ],
      [
        "ma",
        "ni"
      ],
      [
        "Ġnje",
        "zi"
      ],
      [
        "Ġstra",
        "ne"
      ],
      [
        "Ġbi",
        "h"
      ],
      [
        "Ġtvr",
        "tka"
      ],
      [
        "Ġe",
        "k"
      ],
      [
        "Ġon",
        "da"
      ],
      [
        "Ġiz",
        "da"
      ],
      [
        "Ġo",
        "da"
      ],
      [
        "Ġu",
        "sta"
      ],
      [
        "Ġvo",
        "de"
      ],
      [
        "Ġsva",
        "ki"
      ],
      [
        "mo",
        "m"
      ],
      [
        "Ġkra",
        "pi"
      ],
      [
        "Ġc",
        "je"
      ],
      [
        "Ġorgani",
        "zira"
      ],
      [
        "Å¾",
        "ni"
      ],
      [
        "Ġhrvat",
        "ska"
      ],
      [
        "Äįki",
        "m"
      ],
      [
        "Ġg",
        "i"
      ],
      [
        "tu",
        "m"
      ],
      [
        "o",
        "na"
      ],
      [
        "cija",
        "ma"
      ],
      [
        "d",
        "nji"
      ],
      [
        "l",
        "nih"
      ],
      [
        "ta",
        "n"
      ],
      [
        "zi",
        "ma"
      ],
      [
        "mi",
        "r"
      ],
      [
        "Ġus",
        "po"
      ],
      [
        "p",
        "nja"
      ],
      [
        "Ġumje",
        "tni"
      ],
      [
        "lo",
        "ga"
      ],
      [
        "Ġka",
        "r"
      ],
      [
        "v",
        "ka"
      ],
      [
        "v",
        "Å¡i"
      ],
      [
        "Ġdo",
        "gaÄĳa"
      ],
      [
        "Ġ3",
        "0"
      ],
      [
        "Ġva",
        "s"
      ],
      [
        "la",
        "ga"
      ],
      [
        "vi",
        "Å¡e"
      ],
      [
        "vla",
        "sni"
      ],
      [
        "Ġdu",
        "go"
      ],
      [
        "Ġsma",
        "tra"
      ],
      [
        ".",
        ")"
      ],
      [
        "Ġzagre",
        "bu"
      ],
      [
        "Ġma",
        "ri"
      ],
      [
        "s",
        "vi"
      ],
      [
        "u",
        "ze"
      ],
      [
        "Ġvreme",
        "na"
      ],
      [
        "di",
        "ja"
      ],
      [
        "Ġh",
        "u"
      ],
      [
        "lo",
        "vi"
      ],
      [
        "ĠÅ¡",
        "a"
      ],
      [
        "Ġra",
        "spo"
      ],
      [
        "vo",
        "r"
      ],
      [
        "Ġmi",
        "sli"
      ],
      [
        "me",
        "na"
      ],
      [
        "me",
        "nt"
      ],
      [
        "k",
        "si"
      ],
      [
        "Ġs",
        "mi"
      ],
      [
        "Ġi",
        "pak"
      ],
      [
        "1",
        "2"
      ],
      [
        "Ġp",
        "le"
      ],
      [
        "vi",
        "ja"
      ],
      [
        "Äįi",
        "li"
      ],
      [
        "Ġsvi",
        "m"
      ],
      [
        "s",
        "lu"
      ],
      [
        "Äį",
        "na"
      ],
      [
        "zi",
        "ja"
      ],
      [
        "Ġsu",
        "d"
      ],
      [
        "Ġh",
        "ra"
      ],
      [
        "Ġnje",
        "ga"
      ],
      [
        "ĠÄįi",
        "ta"
      ],
      [
        "Ġs",
        "redi"
      ],
      [
        "Ġbo",
        "le"
      ],
      [
        "Ġsta",
        "no"
      ],
      [
        "vanje",
        "m"
      ],
      [
        "!",
        "!"
      ],
      [
        "Ġs",
        "pli"
      ],
      [
        "Ġb",
        "li"
      ],
      [
        "z",
        "ma"
      ],
      [
        "ra",
        "nja"
      ],
      [
        "Ġpje",
        "s"
      ],
      [
        "p",
        "lo"
      ],
      [
        "se",
        "t"
      ],
      [
        "Äįko",
        "j"
      ],
      [
        "Ġu",
        "klju"
      ],
      [
        "ti",
        "ti"
      ],
      [
        "Ġsu",
        "vlasni"
      ],
      [
        "Ġpi",
        "sa"
      ],
      [
        "t",
        "h"
      ],
      [
        "Ġu",
        "ni"
      ],
      [
        "no",
        "ga"
      ],
      [
        "Ġpo",
        "jedi"
      ],
      [
        "Ġelek",
        "tro"
      ],
      [
        "n",
        "ca"
      ],
      [
        "t",
        "re"
      ],
      [
        "Ġna",
        "Å¡i"
      ],
      [
        "Ġna",
        "ro"
      ],
      [
        "ĠÄįa",
        "k"
      ],
      [
        "Ġt",
        "ru"
      ],
      [
        "Ġka",
        "Å¾e"
      ],
      [
        "Ġno",
        "vo"
      ],
      [
        "ĠÅ¾ivo",
        "ta"
      ],
      [
        "Ġst",
        "ro"
      ],
      [
        "Ġre",
        "zu"
      ],
      [
        "Ġpu",
        "no"
      ],
      [
        "ĠÅ¾upa",
        "nije"
      ],
      [
        "n",
        "de"
      ],
      [
        "r",
        "ske"
      ],
      [
        "Ġ2",
        "5"
      ],
      [
        "ĠsluÅ¾",
        "be"
      ],
      [
        "Ġda",
        "tum"
      ],
      [
        "Ġeuro",
        "p"
      ],
      [
        "Ġapa",
        "rt"
      ],
      [
        "n",
        "skog"
      ],
      [
        "Ġu",
        "reÄĳe"
      ],
      [
        "Ġg",
        "le"
      ],
      [
        "Å¡",
        "Äĩa"
      ],
      [
        "Ġbo",
        "ga"
      ],
      [
        "Ġna",
        "Å¡"
      ],
      [
        "Ġme",
        "ta"
      ],
      [
        "Ġpro",
        "Å¡"
      ],
      [
        "Ġpri",
        "pre"
      ],
      [
        "Ġja",
        "ko"
      ],
      [
        "n",
        "te"
      ],
      [
        "Ġu",
        "o"
      ],
      [
        "Ġve",
        "liko"
      ],
      [
        "Ġnu",
        "di"
      ],
      [
        "n",
        "cija"
      ],
      [
        "Ġo",
        "mogu"
      ],
      [
        "t",
        "nih"
      ],
      [
        "Ġo",
        "stva"
      ],
      [
        "Ġob",
        "je"
      ],
      [
        "Ġdrugi",
        "h"
      ],
      [
        "n",
        "ko"
      ],
      [
        "u",
        "r"
      ],
      [
        "Ġpo",
        "ku"
      ],
      [
        "Ġvla",
        "da"
      ],
      [
        "to",
        "ra"
      ],
      [
        "ji",
        "ma"
      ],
      [
        "Ġpro",
        "je"
      ],
      [
        "Ġmla",
        "di"
      ],
      [
        "Ġglaz",
        "be"
      ],
      [
        "Ġmnog",
        "i"
      ],
      [
        "Ġa",
        "s"
      ],
      [
        "Ġnjego",
        "va"
      ],
      [
        "l",
        "le"
      ],
      [
        "Ġjo",
        "j"
      ],
      [
        "Ġmno",
        "go"
      ],
      [
        "Ġs",
        "v"
      ],
      [
        "Ġod",
        "je"
      ],
      [
        "Ġne",
        "Äĩe"
      ],
      [
        "Ġka",
        "snije"
      ],
      [
        "Ġsa",
        "vje"
      ],
      [
        "f",
        "o"
      ],
      [
        "Ġg",
        "ro"
      ],
      [
        "Ġodgo",
        "vara"
      ],
      [
        "p",
        "rije"
      ],
      [
        "Ġti",
        "m"
      ],
      [
        "Ġbo",
        "r"
      ],
      [
        "n",
        "jo"
      ],
      [
        "Ġpre",
        "po"
      ],
      [
        "lje",
        "m"
      ],
      [
        "Ġjed",
        "nom"
      ],
      [
        "Ġ",
        "y"
      ],
      [
        "Ġo",
        "vla"
      ],
      [
        "bi",
        "je"
      ],
      [
        "Ġkori",
        "Å¡te"
      ],
      [
        "Ġsu",
        "dje"
      ],
      [
        "Ġz",
        "gra"
      ],
      [
        "Ġe",
        "ner"
      ],
      [
        "Ġge",
        "nera"
      ],
      [
        "n",
        "skih"
      ],
      [
        "Ġst",
        "ru"
      ],
      [
        "ti",
        "je"
      ],
      [
        "Äĳu",
        "je"
      ],
      [
        "s",
        "mo"
      ],
      [
        "Ġvi",
        "di"
      ],
      [
        "Äĳe",
        "nja"
      ],
      [
        "ri",
        "ca"
      ],
      [
        "Ġza",
        "bo"
      ],
      [
        "Å¾a",
        "n"
      ],
      [
        "Ġs",
        "klo"
      ],
      [
        "Ġima",
        "o"
      ],
      [
        "l",
        "d"
      ],
      [
        "vi",
        "li"
      ],
      [
        "t",
        "nost"
      ],
      [
        "ti",
        "ra"
      ],
      [
        "l",
        "na"
      ],
      [
        "Ġpro",
        "mje"
      ],
      [
        "nt",
        "ro"
      ],
      [
        "Ġposto",
        "ji"
      ],
      [
        "v",
        "nu"
      ],
      [
        "Ġdo",
        "ba"
      ],
      [
        "Ġfi",
        "na"
      ],
      [
        "l",
        "y"
      ],
      [
        "mi",
        "Å¡"
      ],
      [
        "Ġpo",
        "sti"
      ],
      [
        "bi",
        "ja"
      ],
      [
        "lji",
        "vo"
      ],
      [
        "Ġistra",
        "Å¾i"
      ],
      [
        "ri",
        "ti"
      ],
      [
        "Ġpr",
        "vo"
      ],
      [
        "ĠÅ¾ivo",
        "ti"
      ],
      [
        "Ġcr",
        "k"
      ],
      [
        "Ġupra",
        "vo"
      ],
      [
        "Ðµ",
        "Ð"
      ],
      [
        "s",
        "lo"
      ],
      [
        "Ġna",
        "gra"
      ],
      [
        "Ġne",
        "ke"
      ],
      [
        "mo",
        "r"
      ],
      [
        "ĠÄįla",
        "nka"
      ],
      [
        "Ġpo",
        "vje"
      ],
      [
        "Ġpos",
        "lu"
      ],
      [
        "gle",
        "d"
      ],
      [
        "Äį",
        "nih"
      ],
      [
        "Ġpo",
        "Äįi"
      ],
      [
        "Äĩe",
        "m"
      ],
      [
        "Ġtije",
        "la"
      ],
      [
        "Ġz",
        "o"
      ],
      [
        "Äĩi",
        "h"
      ],
      [
        "j",
        "ski"
      ],
      [
        "o",
        "j"
      ],
      [
        "Ġpro",
        "na"
      ],
      [
        "Ġte",
        "re"
      ],
      [
        "zi",
        "je"
      ],
      [
        "Ġvi",
        "dje"
      ],
      [
        "Ġsi",
        "m"
      ],
      [
        "Ġknji",
        "Å¾e"
      ],
      [
        "Ġza",
        "t"
      ],
      [
        "Ġra",
        "da"
      ],
      [
        "Å¾i",
        "ti"
      ],
      [
        "Ġkra",
        "lje"
      ],
      [
        "b",
        "nja"
      ],
      [
        "Ġs",
        "pre"
      ],
      [
        "li",
        "zira"
      ],
      [
        "Ġdo",
        "lazi"
      ],
      [
        "Ġpla",
        "ni"
      ],
      [
        "b",
        "m"
      ],
      [
        "r",
        "ka"
      ],
      [
        "t",
        "ki"
      ],
      [
        "bo",
        "m"
      ],
      [
        "ĠÅ¡ko",
        "le"
      ],
      [
        "Ġo",
        "Äįe"
      ],
      [
        "ĠÄįe",
        "sto"
      ],
      [
        "h",
        "vati"
      ],
      [
        "vni",
        "k"
      ],
      [
        "Ġkori",
        "sni"
      ],
      [
        "Ġpredsta",
        "vlja"
      ],
      [
        "n",
        "ska"
      ],
      [
        "Ġ",
        "Å¾"
      ],
      [
        "Ġa",
        "d"
      ],
      [
        "Ġpe",
        "r"
      ],
      [
        "na",
        "Äįe"
      ],
      [
        "Ġpre",
        "sta"
      ],
      [
        "Ġupra",
        "vlja"
      ],
      [
        "Ġteh",
        "no"
      ],
      [
        "q",
        "u"
      ],
      [
        "Ġdo",
        "ku"
      ],
      [
        "Ġra",
        "ta"
      ],
      [
        "Ġno",
        "si"
      ],
      [
        "j",
        "ske"
      ],
      [
        "re",
        "nje"
      ],
      [
        "Ġrije",
        "Äį"
      ],
      [
        "Ġs",
        "ko"
      ],
      [
        "Ġnjego",
        "v"
      ],
      [
        "ĠmeÄĳu",
        "na"
      ],
      [
        "Ġpomo",
        "Äĩ"
      ],
      [
        "Ġrje",
        "Å¡e"
      ],
      [
        "Ġi",
        "t"
      ],
      [
        "nji",
        "ma"
      ],
      [
        "____",
        "____"
      ],
      [
        "Ġmili",
        "ju"
      ],
      [
        "e",
        "r"
      ],
      [
        "Ġs",
        "lje"
      ],
      [
        "Ġza",
        "to"
      ],
      [
        "Ġza",
        "pa"
      ],
      [
        "Ġw",
        "i"
      ],
      [
        "v",
        "lju"
      ],
      [
        "w",
        "w"
      ],
      [
        "Ġrezu",
        "lta"
      ],
      [
        "Ġs",
        "lije"
      ],
      [
        "Ġa",
        "ge"
      ],
      [
        "Ġsta",
        "ri"
      ],
      [
        "vni",
        "ka"
      ],
      [
        "Ġmini",
        "star"
      ],
      [
        "m",
        "be"
      ],
      [
        "Ġna",
        "pra"
      ],
      [
        "Ġprogra",
        "m"
      ],
      [
        "Ġo",
        "v"
      ],
      [
        "Äį",
        "ku"
      ],
      [
        "te",
        "k"
      ],
      [
        "Ġte",
        "m"
      ],
      [
        "Ġs",
        "kla"
      ],
      [
        "Ġv",
        "rati"
      ],
      [
        "Ġe",
        "ko"
      ],
      [
        "Ġnje",
        "ma"
      ],
      [
        "na",
        "r"
      ],
      [
        "Ġo",
        "pa"
      ],
      [
        "Ġu",
        "na"
      ],
      [
        "Ġna",
        "po"
      ],
      [
        "Ġe",
        "le"
      ],
      [
        "sa",
        "o"
      ],
      [
        "Ġho",
        "te"
      ],
      [
        "Ġpo",
        "go"
      ],
      [
        "Ġhrvat",
        "ski"
      ],
      [
        "Ġo",
        "Äįi"
      ],
      [
        "Ġmje",
        "sta"
      ],
      [
        "l",
        "nog"
      ],
      [
        "z",
        "ni"
      ],
      [
        "Ġs",
        "kup"
      ],
      [
        "te",
        "ra"
      ],
      [
        "Ġko",
        "lo"
      ],
      [
        "ca",
        "ma"
      ],
      [
        "âĢ",
        "¦"
      ],
      [
        "ĠÅ¡ko",
        "la"
      ],
      [
        "Ġposto",
        "je"
      ],
      [
        "Ġosje",
        "Äĩa"
      ],
      [
        "n",
        "dar"
      ],
      [
        "Ġp",
        "rva"
      ],
      [
        "da",
        "m"
      ],
      [
        "Ġpru",
        "Å¾a"
      ],
      [
        "e",
        "l"
      ],
      [
        "ka",
        "v"
      ],
      [
        "Ġti",
        "me"
      ],
      [
        "Ġku",
        "na"
      ],
      [
        "Ġobi",
        "telji"
      ],
      [
        "ĠgraÄĳe",
        "vin"
      ],
      [
        "t",
        "y"
      ],
      [
        "Ġu",
        "tvr"
      ],
      [
        "re",
        "k"
      ],
      [
        "Ġna",
        "cional"
      ],
      [
        "vi",
        "la"
      ],
      [
        "Ġve",
        "za"
      ],
      [
        "Ġlju",
        "d"
      ],
      [
        "1",
        "8"
      ],
      [
        "r",
        "y"
      ],
      [
        "ve",
        "sti"
      ],
      [
        "nu",
        "o"
      ],
      [
        "gi",
        "je"
      ],
      [
        "Ġdru",
        "ga"
      ],
      [
        "so",
        "m"
      ],
      [
        "Ġgoto",
        "vo"
      ],
      [
        "k",
        "lu"
      ],
      [
        "Ġu",
        "da"
      ],
      [
        "Ġno",
        "ve"
      ],
      [
        "ze",
        "m"
      ],
      [
        "d",
        "nosti"
      ],
      [
        "t",
        "kom"
      ],
      [
        "ka",
        "ma"
      ],
      [
        "pi",
        "si"
      ],
      [
        "Ġca",
        "r"
      ],
      [
        "Äįi",
        "o"
      ],
      [
        "Ġst",
        "je"
      ],
      [
        "Ġin",
        "du"
      ],
      [
        "te",
        "ta"
      ],
      [
        "Ġka",
        "te"
      ],
      [
        "Ġ",
        "."
      ],
      [
        "Ġsu",
        "sre"
      ],
      [
        "pi",
        "su"
      ],
      [
        "Ġobi",
        "lje"
      ],
      [
        "j",
        "na"
      ],
      [
        "Ġudru",
        "ga"
      ],
      [
        "Ġko",
        "menta"
      ],
      [
        "pi",
        "ti"
      ],
      [
        "Ġrazli",
        "Äįi"
      ],
      [
        "Ġo",
        "gra"
      ],
      [
        "Ġu",
        "m"
      ],
      [
        "ti",
        "ri"
      ],
      [
        "di",
        "na"
      ],
      [
        "Äįa",
        "r"
      ],
      [
        "Ġni",
        "ti"
      ],
      [
        "Ġis",
        "ku"
      ],
      [
        "Ġsamo",
        "sta"
      ],
      [
        "Ġpopu",
        "t"
      ],
      [
        "Ġfoto",
        "grafi"
      ],
      [
        "v",
        "ra"
      ],
      [
        "ne",
        "t"
      ],
      [
        "Ġt",
        "ko"
      ],
      [
        "tu",
        "re"
      ],
      [
        "Ġre",
        "kao"
      ],
      [
        "Ġdu",
        "bro"
      ],
      [
        "Ġtr",
        "Å¾i"
      ],
      [
        "ka",
        "zu"
      ],
      [
        "d",
        "rÅ¾a"
      ],
      [
        "ta",
        "ka"
      ],
      [
        "vo",
        "d"
      ],
      [
        "Ġne",
        "u"
      ],
      [
        "pu",
        "sti"
      ],
      [
        "Ġkra",
        "ju"
      ],
      [
        "ti",
        "ca"
      ],
      [
        "Ġot",
        "kri"
      ],
      [
        "k",
        "li"
      ],
      [
        "Ġpo",
        "ma"
      ],
      [
        "Å¡a",
        "va"
      ],
      [
        "ĠdruÅ¡t",
        "vo"
      ],
      [
        "Ġspe",
        "cija"
      ],
      [
        "re",
        "nja"
      ],
      [
        "ma",
        "na"
      ],
      [
        "Ġoso",
        "bi"
      ],
      [
        "Ġi",
        "bm"
      ],
      [
        "Ġkoje",
        "g"
      ],
      [
        "Ġbu",
        "de"
      ],
      [
        "je",
        "mo"
      ],
      [
        "ra",
        "va"
      ],
      [
        "ni",
        "ke"
      ],
      [
        "Å¾",
        "da"
      ],
      [
        "Å¾e",
        "nje"
      ],
      [
        "Ġob",
        "ve"
      ],
      [
        "ĠÅ¾e",
        "lje"
      ],
      [
        "Ġuslu",
        "ge"
      ],
      [
        "Ġp",
        "li"
      ],
      [
        "ĠdruÅ¡t",
        "ve"
      ],
      [
        "b",
        "lja"
      ],
      [
        "Ġ",
        "["
      ],
      [
        "ĠÄįi",
        "ni"
      ],
      [
        "Ġknji",
        "ga"
      ],
      [
        "ka",
        "r"
      ],
      [
        "sti",
        "tu"
      ],
      [
        "Ġdje",
        "lu"
      ],
      [
        "ni",
        "cu"
      ],
      [
        "to",
        "g"
      ],
      [
        "ba",
        "ma"
      ],
      [
        "r",
        "vi"
      ],
      [
        "Ġna",
        "tjeca"
      ],
      [
        "Ġpr",
        "ve"
      ],
      [
        "Ġok",
        "ru"
      ],
      [
        "Ġi",
        "van"
      ],
      [
        "ra",
        "o"
      ],
      [
        "tu",
        "a"
      ],
      [
        "..",
        ".."
      ],
      [
        "Ġro",
        "di"
      ],
      [
        "Ġoso",
        "be"
      ],
      [
        "la",
        "za"
      ],
      [
        "Ġt",
        "ran"
      ],
      [
        "Ġjo",
        "si"
      ],
      [
        "Ġrije",
        "Äįi"
      ],
      [
        "ĠsluÄįa",
        "ju"
      ],
      [
        "Ġ",
        "/"
      ],
      [
        "te",
        "re"
      ],
      [
        "Ġa",
        "m"
      ],
      [
        "Ġpri",
        "va"
      ],
      [
        "Äĳe",
        "na"
      ],
      [
        "Ġvr",
        "sta"
      ],
      [
        "c",
        "je"
      ],
      [
        "Äį",
        "nim"
      ],
      [
        "Ġva",
        "Å¡e"
      ],
      [
        "ĠdruÅ¡t",
        "va"
      ],
      [
        "ra",
        "ju"
      ],
      [
        "la",
        "r"
      ],
      [
        "Ġda",
        "lje"
      ],
      [
        "Ġsvije",
        "tu"
      ],
      [
        "Ġo",
        "ku"
      ],
      [
        "Ġ",
        "Å¾a"
      ],
      [
        "Ġne",
        "do"
      ],
      [
        "bo",
        "j"
      ],
      [
        "1",
        "1"
      ],
      [
        "z",
        "da"
      ],
      [
        "ĠÄįe",
        "tiri"
      ],
      [
        "Ġjedno",
        "sta"
      ],
      [
        "Ġunu",
        "tar"
      ],
      [
        "ci",
        "jom"
      ],
      [
        "Ġta",
        "mo"
      ],
      [
        "Ġc",
        "u"
      ],
      [
        "Ġa",
        "na"
      ],
      [
        "Ġdrugi",
        "m"
      ],
      [
        "r",
        "d"
      ],
      [
        "Ġoba",
        "vlja"
      ],
      [
        "Ġzna",
        "nstve"
      ],
      [
        "Ġsvije",
        "ta"
      ],
      [
        "Ġo",
        "vi"
      ],
      [
        "3",
        "0"
      ],
      [
        "Ġpos",
        "lije"
      ],
      [
        "Ġpe",
        "t"
      ],
      [
        "stru",
        "k"
      ],
      [
        "li",
        "Äĩ"
      ],
      [
        "Ġis",
        "po"
      ],
      [
        "Ġrado",
        "va"
      ],
      [
        "no",
        "ve"
      ],
      [
        "Ġpro",
        "fe"
      ],
      [
        "Ġbo",
        "l"
      ],
      [
        "Ġobi",
        "telj"
      ],
      [
        "Ġstolje",
        "Äĩa"
      ],
      [
        "a",
        "m"
      ],
      [
        "l",
        "jo"
      ],
      [
        "Ġ2",
        "1"
      ],
      [
        "Ġgospo",
        "dar"
      ],
      [
        "Ġrepubli",
        "ke"
      ],
      [
        "t",
        "nim"
      ],
      [
        "to",
        "va"
      ],
      [
        "Ġka",
        "ta"
      ],
      [
        "Ġva",
        "Å¾"
      ],
      [
        "Ġhrvat",
        "skog"
      ],
      [
        "k",
        "nji"
      ],
      [
        "vo",
        "ji"
      ],
      [
        "Ġko",
        "mu"
      ],
      [
        "tu",
        "ra"
      ],
      [
        "Ġte",
        "le"
      ],
      [
        "bi",
        "o"
      ],
      [
        "Ġgodi",
        "nu"
      ],
      [
        "Ġpo",
        "vrÅ¡i"
      ],
      [
        "||",
        "."
      ],
      [
        "Ġov",
        "dje"
      ],
      [
        "c",
        "he"
      ],
      [
        "Ġko",
        "ntro"
      ],
      [
        "Ġmo",
        "Å¾da"
      ],
      [
        "Ġni",
        "ko"
      ],
      [
        "ĠpodruÄį",
        "ja"
      ],
      [
        "Ġzapre",
        "Å¡iÄĩ"
      ],
      [
        "Ġmiliju",
        "na"
      ],
      [
        "n",
        "skom"
      ],
      [
        "Ġu",
        "tjeca"
      ],
      [
        "li",
        "ce"
      ],
      [
        "Ġ19",
        "4"
      ],
      [
        "Ġ200",
        "4"
      ],
      [
        "s",
        "le"
      ],
      [
        "Ġpo",
        "na"
      ],
      [
        "n",
        "do"
      ],
      [
        "sta",
        "la"
      ],
      [
        "Ġma",
        "nje"
      ],
      [
        "je",
        "va"
      ],
      [
        "Ġna",
        "ra"
      ],
      [
        "Ġna",
        "ja"
      ],
      [
        "Ġiz",
        "grad"
      ],
      [
        "Ġni",
        "Å¡ta"
      ],
      [
        "Ġslje",
        "de"
      ],
      [
        "m",
        "lje"
      ],
      [
        "Ġza",
        "vr"
      ],
      [
        "Ġdo",
        "Å¡"
      ],
      [
        "Ġdo",
        "sta"
      ],
      [
        "sko",
        "ga"
      ],
      [
        "Ġvo",
        "zi"
      ],
      [
        "Ġ",
        "x"
      ],
      [
        "Ġpo",
        "lo"
      ],
      [
        "Ġsvo",
        "g"
      ],
      [
        "Ġcr",
        "kve"
      ],
      [
        "Ġo",
        "vom"
      ],
      [
        "Ġu",
        "govo"
      ],
      [
        "Ġko",
        "liko"
      ],
      [
        "Ġpro",
        "ce"
      ],
      [
        "Ġmje",
        "stu"
      ],
      [
        "Ġce",
        "nta"
      ],
      [
        "z",
        "or"
      ],
      [
        "Äį",
        "nog"
      ],
      [
        "li",
        "ti"
      ],
      [
        "Ġfran",
        "cu"
      ],
      [
        "t",
        "nog"
      ],
      [
        "Ġg",
        "ps"
      ],
      [
        "zna",
        "ti"
      ],
      [
        "r",
        "ce"
      ],
      [
        "Ġu",
        "go"
      ],
      [
        "Ġc",
        "re"
      ],
      [
        "ĠÑ",
        "ĥ"
      ],
      [
        "va",
        "r"
      ],
      [
        "u",
        "redi"
      ],
      [
        "Ġz",
        "bi"
      ],
      [
        "Ġob",
        "u"
      ],
      [
        "pe",
        "ra"
      ],
      [
        "n",
        "y"
      ],
      [
        "li",
        "t"
      ],
      [
        "Ġkra",
        "j"
      ],
      [
        "Ġspo",
        "me"
      ],
      [
        "svi",
        "ba"
      ],
      [
        "nici",
        "ma"
      ],
      [
        "Ġsusta",
        "va"
      ],
      [
        "Ð°",
        "Ð"
      ],
      [
        "ri",
        "Äĩ"
      ],
      [
        "Ġz",
        "lo"
      ],
      [
        "Å¡t",
        "vo"
      ],
      [
        "Å¡t",
        "va"
      ],
      [
        "Ġcent",
        "ra"
      ],
      [
        "Ġza",
        "jedno"
      ],
      [
        "Äįe",
        "nje"
      ],
      [
        "Ġto",
        "g"
      ],
      [
        "Ġos",
        "ni"
      ],
      [
        "Ġsvo",
        "m"
      ],
      [
        "Ġauto",
        "r"
      ],
      [
        "n",
        "ga"
      ],
      [
        "Ġk",
        "li"
      ],
      [
        "go",
        "m"
      ],
      [
        "Äįi",
        "na"
      ],
      [
        "Ġnji",
        "ma"
      ],
      [
        "s",
        "r"
      ],
      [
        "v",
        "ca"
      ],
      [
        "Ġba",
        "vi"
      ],
      [
        "dno",
        "st"
      ],
      [
        "Ġsku",
        "pi"
      ],
      [
        "Ġkomenta",
        "r"
      ],
      [
        "Ġ",
        "Äĳu"
      ],
      [
        "Ġse",
        "zo"
      ],
      [
        "Ġpri",
        "Äįa"
      ],
      [
        "Ġ2",
        "4"
      ],
      [
        "Ġli",
        "sto"
      ],
      [
        "Ġpos",
        "la"
      ],
      [
        "Ġti",
        "su"
      ],
      [
        "Ġzna",
        "Äįi"
      ],
      [
        "Ġteh",
        "ni"
      ],
      [
        "Ġproje",
        "kti"
      ],
      [
        "Ġd",
        "ne"
      ],
      [
        "Ġu",
        "ko"
      ],
      [
        "Ġpo",
        "kaza"
      ],
      [
        "Ġko",
        "li"
      ],
      [
        "Ġne",
        "za"
      ],
      [
        "me",
        "nti"
      ],
      [
        "nica",
        "ma"
      ],
      [
        "c",
        "hi"
      ],
      [
        "n",
        "Äįa"
      ],
      [
        "Ð¾",
        "Ð"
      ],
      [
        "hva",
        "Äĩa"
      ],
      [
        "Ġfu",
        "nk"
      ],
      [
        "Ġpri",
        "pada"
      ],
      [
        "Ġsvije",
        "t"
      ],
      [
        "no",
        "viÄĩ"
      ],
      [
        "Ġza",
        "kon"
      ],
      [
        "st",
        "vom"
      ],
      [
        "Ġgo",
        "r"
      ],
      [
        "vno",
        "st"
      ],
      [
        "Ġsje",
        "di"
      ],
      [
        "Ġinforma",
        "cije"
      ],
      [
        "t",
        "t"
      ],
      [
        "na",
        "d"
      ],
      [
        "Ġu",
        "kup"
      ],
      [
        "ri",
        "ji"
      ],
      [
        "Ġteme",
        "lju"
      ],
      [
        "Ġcom",
        "mo"
      ],
      [
        "h",
        "r"
      ],
      [
        "Ġpo",
        "e"
      ],
      [
        "ci",
        "o"
      ],
      [
        "Ġgo",
        "d"
      ],
      [
        "Ġjed",
        "nog"
      ],
      [
        "Ġpove",
        "Äĩa"
      ],
      [
        "Ġfina",
        "nci"
      ],
      [
        "ri",
        "ce"
      ],
      [
        "Ġsvo",
        "joj"
      ],
      [
        "n",
        "ke"
      ],
      [
        "Ġod",
        "ma"
      ],
      [
        "pe",
        "r"
      ],
      [
        "Ġgle",
        "da"
      ],
      [
        "d",
        "nje"
      ],
      [
        "ra",
        "li"
      ],
      [
        "Ġu",
        "tak"
      ],
      [
        "Ġob",
        "rt"
      ],
      [
        "Ġspo",
        "rt"
      ],
      [
        "ĠmeÄĳu",
        "tim"
      ],
      [
        "Ġdije",
        "lu"
      ],
      [
        "Ġure",
        "Äĳa"
      ],
      [
        "Ġfil",
        "m"
      ],
      [
        "k",
        "ro"
      ],
      [
        "Ġ",
        "#"
      ],
      [
        "ma",
        "r"
      ],
      [
        "Ġpo",
        "ne"
      ],
      [
        "Ġa",
        "t"
      ],
      [
        "Å¾i",
        "o"
      ],
      [
        "Ġkoji",
        "m"
      ],
      [
        "ĠÄĩe",
        "mo"
      ],
      [
        "Ġpos",
        "ve"
      ],
      [
        "Ġal",
        "bu"
      ],
      [
        "Ġutak",
        "mi"
      ],
      [
        "g",
        "lo"
      ],
      [
        "g",
        "nu"
      ],
      [
        "re",
        "da"
      ],
      [
        "tu",
        "al"
      ],
      [
        "Ġvr",
        "ste"
      ],
      [
        "Ġdije",
        "la"
      ],
      [
        "Ġzah",
        "va"
      ],
      [
        "1",
        "5"
      ],
      [
        "b",
        "r"
      ],
      [
        "ĠÅ¡",
        "te"
      ],
      [
        "Ġti",
        "h"
      ],
      [
        "l",
        "nim"
      ],
      [
        "ra",
        "ne"
      ],
      [
        "Å¡",
        "ku"
      ],
      [
        "Ġra",
        "dni"
      ],
      [
        "Ġve",
        "Äįe"
      ],
      [
        "Ġraz",
        "voj"
      ],
      [
        "Ġinte",
        "re"
      ],
      [
        "Ġtehno",
        "logi"
      ],
      [
        "i",
        "me"
      ],
      [
        "Ġ2",
        "2"
      ],
      [
        "Ġku",
        "Äĩa"
      ],
      [
        "Ġ19",
        "8"
      ],
      [
        "z",
        "no"
      ],
      [
        "te",
        "m"
      ],
      [
        "Ġza",
        "do"
      ],
      [
        "Ġra",
        "du"
      ],
      [
        "bi",
        "na"
      ],
      [
        "pi",
        "o"
      ],
      [
        "Ġw",
        "a"
      ],
      [
        "Ġknji",
        "ge"
      ],
      [
        "Ġobra",
        "zo"
      ],
      [
        "ĠizloÅ¾",
        "ba"
      ],
      [
        "Ġvra",
        "ta"
      ],
      [
        "o",
        "d"
      ],
      [
        "Ġza",
        "tim"
      ],
      [
        "Ġnje",
        "mu"
      ],
      [
        "Å¡ta",
        "j"
      ],
      [
        "Ġzem",
        "lje"
      ],
      [
        "Ġmuze",
        "j"
      ],
      [
        "Ġo",
        "zna"
      ],
      [
        "Äįi",
        "ne"
      ],
      [
        "Äĩe",
        "g"
      ],
      [
        "sa",
        "n"
      ],
      [
        "Ġga",
        "le"
      ],
      [
        "Ġveli",
        "ke"
      ],
      [
        "volj",
        "no"
      ],
      [
        "k",
        "na"
      ],
      [
        "ra",
        "Å¾"
      ],
      [
        "Ġg",
        "lu"
      ],
      [
        "so",
        "n"
      ],
      [
        "g",
        "h"
      ],
      [
        "Ġu",
        "pu"
      ],
      [
        "Ġpo",
        "gleda"
      ],
      [
        "Ġse",
        "be"
      ],
      [
        "Ġsta",
        "vka"
      ],
      [
        "Ġis",
        "pu"
      ],
      [
        "Ġsva",
        "ka"
      ],
      [
        "ĠdrÅ¾a",
        "va"
      ],
      [
        "n",
        "jom"
      ],
      [
        "Ġdo",
        "mo"
      ],
      [
        "Å¡te",
        "n"
      ],
      [
        "vno",
        "j"
      ],
      [
        "Ġoko",
        "li"
      ],
      [
        "Ġpredsjedni",
        "k"
      ],
      [
        "Ġo",
        "z"
      ],
      [
        "si",
        "je"
      ],
      [
        "za",
        "m"
      ],
      [
        "Ġtu",
        "r"
      ],
      [
        ".",
        "["
      ],
      [
        "Ġod",
        "red"
      ],
      [
        "sta",
        "va"
      ],
      [
        "Ġte",
        "Å¡ko"
      ],
      [
        "Ġima",
        "ti"
      ],
      [
        "Ġ",
        "Äĩu"
      ],
      [
        "Ġi",
        "i"
      ],
      [
        "Ġm",
        "r"
      ],
      [
        "Ġm",
        "re"
      ],
      [
        "Ġbi",
        "t"
      ],
      [
        "Ġin",
        "stitu"
      ],
      [
        "Ġpotre",
        "b"
      ],
      [
        "ra",
        "la"
      ],
      [
        "Ġo",
        "bo"
      ],
      [
        "Ġpo",
        "ru"
      ],
      [
        "te",
        "ri"
      ],
      [
        "Ġkoji",
        "h"
      ],
      [
        "n",
        "joj"
      ],
      [
        "t",
        "ski"
      ],
      [
        "Ġmo",
        "gao"
      ],
      [
        "Ġni",
        "sam"
      ],
      [
        "Ġdu",
        "ho"
      ],
      [
        "ĠÄįi",
        "nje"
      ],
      [
        "ĠÄįla",
        "n"
      ],
      [
        "Ġzemlji",
        "Å¡"
      ],
      [
        "miÅ¡",
        "lja"
      ],
      [
        "Ġcenta",
        "r"
      ],
      [
        "Ġdo",
        "pu"
      ],
      [
        "de",
        "se"
      ],
      [
        "Ġsve",
        "ga"
      ],
      [
        "Ġan",
        "ti"
      ],
      [
        "Ġk",
        "m"
      ],
      [
        "Ġprosto",
        "r"
      ],
      [
        "s",
        "nih"
      ],
      [
        "ti",
        "h"
      ],
      [
        "li",
        "o"
      ],
      [
        "ja",
        "n"
      ],
      [
        "Ġpo",
        "stup"
      ],
      [
        "Ġpri",
        "stup"
      ],
      [
        "Ġis",
        "pra"
      ],
      [
        "Ġope",
        "t"
      ],
      [
        "Å¾",
        "be"
      ],
      [
        "Äĳe",
        "ni"
      ],
      [
        "Ġ2",
        "3"
      ],
      [
        "Ġba",
        "r"
      ],
      [
        "Ġn",
        "r"
      ],
      [
        "Ġnajbo",
        "lji"
      ],
      [
        "Ġ",
        "l"
      ],
      [
        "lo",
        "Å¾e"
      ],
      [
        "Ġbi",
        "sku"
      ],
      [
        "de",
        "r"
      ],
      [
        "Ġvrije",
        "dnosti"
      ],
      [
        "ÑĢ",
        "ÐµÐ"
      ],
      [
        "u",
        "s"
      ],
      [
        "Ġi",
        "sta"
      ],
      [
        "Ġbi",
        "le"
      ],
      [
        "Ġku",
        "Äĩe"
      ],
      [
        "Ġcre",
        "ati"
      ],
      [
        "t",
        "r"
      ],
      [
        "Ġka",
        "k"
      ],
      [
        "Ġh",
        "la"
      ],
      [
        "ĠÄĩe",
        "te"
      ],
      [
        "Ġpomo",
        "Äĩi"
      ],
      [
        "v",
        "ci"
      ],
      [
        "´",
        "Ð¸"
      ],
      [
        "na",
        "c"
      ],
      [
        "Ġu",
        "gla"
      ],
      [
        "Ġu",
        "pisa"
      ],
      [
        "Ġiz",
        "vje"
      ],
      [
        "Ġviso",
        "ko"
      ],
      [
        "ĠÄįovje",
        "k"
      ],
      [
        "Ġuko",
        "liko"
      ],
      [
        "p",
        "lje"
      ],
      [
        "Ġdo",
        "Å¾i"
      ],
      [
        "Äįe",
        "nja"
      ],
      [
        "pre",
        "d"
      ],
      [
        "Ġjed",
        "ne"
      ],
      [
        "t",
        "he"
      ],
      [
        "Ġna",
        "se"
      ],
      [
        "ve",
        "d"
      ],
      [
        "Ġgra",
        "do"
      ],
      [
        "Ġnjego",
        "ve"
      ],
      [
        "kup",
        "lja"
      ],
      [
        "ra",
        "c"
      ],
      [
        "lo",
        "Å¡ki"
      ],
      [
        "Ġod",
        "govo"
      ],
      [
        "Ġdu",
        "Å¾"
      ],
      [
        "Ġzako",
        "nom"
      ],
      [
        "Ġpove",
        "za"
      ],
      [
        "Ġuspo",
        "sta"
      ],
      [
        "Ġtem",
        "pera"
      ],
      [
        "t",
        "nu"
      ],
      [
        "re",
        "m"
      ],
      [
        "Ġiz",
        "bo"
      ],
      [
        "pra",
        "vo"
      ],
      [
        "mije",
        "nje"
      ],
      [
        "----",
        "----"
      ],
      [
        "Ġcommo",
        "ns"
      ],
      [
        "Ġna",
        "u"
      ],
      [
        "to",
        "n"
      ],
      [
        "Ġupo",
        "ra"
      ],
      [
        "ni",
        "Äĩ"
      ],
      [
        "Ġu",
        "Å¾i"
      ],
      [
        "Ġod",
        "re"
      ],
      [
        "Ġraz",
        "do"
      ],
      [
        "Ġsve",
        "Äįa"
      ],
      [
        "Ġtu",
        "risti"
      ],
      [
        "Ġzapo",
        "Äįe"
      ],
      [
        "d",
        "ro"
      ],
      [
        "Ġda",
        "l"
      ],
      [
        "Ġte",
        "r"
      ],
      [
        "mi",
        "ni"
      ],
      [
        "Ġraz",
        "u"
      ],
      [
        "Å¡i",
        "Äĩa"
      ],
      [
        "Ġvr",
        "hu"
      ],
      [
        "Ġproizvo",
        "da"
      ],
      [
        "Ġprosto",
        "ra"
      ],
      [
        "Ġfe",
        "sti"
      ],
      [
        "Ġzdra",
        "v"
      ],
      [
        "Ġmaterija",
        "la"
      ],
      [
        "Ġcreati",
        "ve"
      ],
      [
        "vi",
        "ca"
      ],
      [
        "te",
        "t"
      ],
      [
        "te",
        "lje"
      ],
      [
        "Ġc",
        "ha"
      ],
      [
        "Ġpot",
        "vr"
      ],
      [
        "Ġtvr",
        "tke"
      ],
      [
        "Ġzah",
        "tije"
      ],
      [
        "Ġpoz",
        "dra"
      ],
      [
        "j",
        "no"
      ],
      [
        "u",
        "t"
      ],
      [
        "Äį",
        "nu"
      ],
      [
        "Äį",
        "nom"
      ],
      [
        "Ġpo",
        "bje"
      ],
      [
        "Ġza",
        "loÅ¾"
      ],
      [
        "Ġka",
        "za"
      ],
      [
        "Ġka",
        "rak"
      ],
      [
        "Ġiz",
        "vr"
      ],
      [
        "Ġe",
        "vo"
      ],
      [
        "Ġgra",
        "du"
      ],
      [
        "Ġsvo",
        "jih"
      ],
      [
        "Ġope",
        "ra"
      ],
      [
        "l",
        "li"
      ],
      [
        "to",
        "li"
      ],
      [
        "Ġsu",
        "vreme"
      ],
      [
        "Ġpri",
        "zna"
      ],
      [
        "pa",
        "nj"
      ],
      [
        "ba",
        "r"
      ],
      [
        "Ġdi",
        "za"
      ],
      [
        "Ġva",
        "raÅ¾"
      ],
      [
        "ĠraÄįu",
        "na"
      ],
      [
        "e",
        "n"
      ],
      [
        "j",
        "ka"
      ],
      [
        "Ġsa",
        "mi"
      ],
      [
        "Ġiz",
        "gra"
      ],
      [
        "Ġsve",
        "u"
      ],
      [
        "so",
        "b"
      ],
      [
        "ĠÄįe",
        "tvr"
      ],
      [
        "sla",
        "v"
      ],
      [
        ".",
        "||"
      ],
      [
        "5",
        "0"
      ],
      [
        "Ġza",
        "nim"
      ],
      [
        "Ġza",
        "mje"
      ],
      [
        "Ġiz",
        "bor"
      ],
      [
        "sti",
        "ma"
      ],
      [
        "Ġdje",
        "Äį"
      ],
      [
        "Ġuz",
        "ro"
      ],
      [
        "Ġpotre",
        "bno"
      ],
      [
        "ĠmoguÄĩ",
        "nosti"
      ],
      [
        "j",
        "skih"
      ],
      [
        "Ġo",
        "vu"
      ],
      [
        "li",
        "ne"
      ],
      [
        "Ġza",
        "gor"
      ],
      [
        "Ġmi",
        "nu"
      ],
      [
        "Ġsi",
        "tua"
      ],
      [
        "Ġtradi",
        "cional"
      ],
      [
        "ĠpoÄįi",
        "nje"
      ],
      [
        "2",
        "0"
      ],
      [
        "b",
        "re"
      ],
      [
        "Ġs",
        "vr"
      ],
      [
        "na",
        "ta"
      ],
      [
        "Ġo",
        "ti"
      ],
      [
        "vo",
        "je"
      ],
      [
        "Ġg",
        "lo"
      ],
      [
        "ku",
        "l"
      ],
      [
        "Ġmi",
        "r"
      ],
      [
        "Äĩu",
        "je"
      ],
      [
        "Ġdjela",
        "tnosti"
      ],
      [
        "Ġudru",
        "ge"
      ],
      [
        "1",
        "4"
      ],
      [
        "e",
        "s"
      ],
      [
        "g",
        "ro"
      ],
      [
        "z",
        "ne"
      ],
      [
        "Ġsa",
        "ve"
      ],
      [
        "Ġis",
        "klju"
      ],
      [
        "Ġmogu",
        "Äĩe"
      ],
      [
        "Ġmedi",
        "ci"
      ],
      [
        "Ġnajbo",
        "lje"
      ],
      [
        "o",
        "p"
      ],
      [
        "Ġsta",
        "ro"
      ],
      [
        "Ġsvi",
        "bnja"
      ],
      [
        "Ġtra",
        "ja"
      ],
      [
        "ĠÂ",
        "»"
      ],
      [
        "ĠizloÅ¾",
        "be"
      ],
      [
        "Ġstano",
        "vni"
      ],
      [
        "Ġugla",
        "vnom"
      ],
      [
        "Ġb",
        "re"
      ],
      [
        "me",
        "r"
      ],
      [
        "Ġma",
        "gi"
      ],
      [
        "Ġposto",
        "ja"
      ],
      [
        "Ġkultu",
        "re"
      ],
      [
        "ĠvlasniÅ¡t",
        "va"
      ],
      [
        "Å¾",
        "ne"
      ],
      [
        "Ġse",
        "k"
      ],
      [
        "Ġiz",
        "van"
      ],
      [
        "Ġre",
        "Äĩi"
      ],
      [
        "Ġta",
        "lija"
      ],
      [
        "Ġdi",
        "rek"
      ],
      [
        "Ġtije",
        "lo"
      ],
      [
        "Ġuklju",
        "Äįu"
      ],
      [
        "di",
        "n"
      ],
      [
        "Ġiz",
        "ja"
      ],
      [
        "Ġ2",
        "8"
      ],
      [
        "Ġpa",
        "ra"
      ],
      [
        "Ġima",
        "la"
      ],
      [
        "Ġsudje",
        "lo"
      ],
      [
        "o",
        "k"
      ],
      [
        "Ġsu",
        "da"
      ],
      [
        "Ġte",
        "ma"
      ],
      [
        "Ġuslu",
        "ga"
      ],
      [
        "va",
        "c"
      ],
      [
        "lo",
        "st"
      ],
      [
        "Ġa",
        "f"
      ],
      [
        "Ġsa",
        "te"
      ],
      [
        "mi",
        "sli"
      ],
      [
        "Ġob",
        "zi"
      ],
      [
        "Ġpu",
        "tem"
      ],
      [
        "Ġima",
        "li"
      ],
      [
        "Ġde",
        "mo"
      ],
      [
        "fi",
        "ka"
      ],
      [
        "Ġpotpu",
        "no"
      ],
      [
        "vi",
        "d"
      ],
      [
        "Ġod",
        "ra"
      ],
      [
        "tni",
        "ka"
      ],
      [
        "ĠmoÅ¾e",
        "mo"
      ],
      [
        "vlje",
        "n"
      ],
      [
        "Ġumje",
        "tnosti"
      ],
      [
        "li",
        "ca"
      ],
      [
        "Ġg",
        "re"
      ],
      [
        "Ġpu",
        "to"
      ],
      [
        "Ġ4",
        "0"
      ],
      [
        "ĠdrÅ¾a",
        "ve"
      ],
      [
        "f",
        "t"
      ],
      [
        "i",
        "s"
      ],
      [
        "r",
        "Å¾i"
      ],
      [
        "s",
        "nog"
      ],
      [
        "ko",
        "v"
      ],
      [
        "ĠÅ¡",
        "ta"
      ],
      [
        "Ġe",
        "ng"
      ],
      [
        "Ġpi",
        "s"
      ],
      [
        "Ġdjela",
        "tnost"
      ],
      [
        "Ġogra",
        "ni"
      ],
      [
        "Ġna",
        "pa"
      ],
      [
        "Ġgla",
        "vni"
      ],
      [
        "Ġkori",
        "ste"
      ],
      [
        "Ġodma",
        "h"
      ],
      [
        "Ġna",
        "kna"
      ],
      [
        "Ġf",
        "ra"
      ],
      [
        "Ġpa",
        "rt"
      ],
      [
        "Ġraz",
        "vo"
      ],
      [
        "Ġs",
        "mije"
      ],
      [
        "Ġza",
        "klju"
      ],
      [
        "Ġmo",
        "Äĩi"
      ],
      [
        "ba",
        "n"
      ],
      [
        "Ġba",
        "Å¡"
      ],
      [
        "vlje",
        "na"
      ],
      [
        "v",
        "lji"
      ],
      [
        "Ġdi",
        "ja"
      ],
      [
        "ĠÅ¡ko",
        "l"
      ],
      [
        "Ġ5",
        "0"
      ],
      [
        "Ġsli",
        "ka"
      ],
      [
        "Ġna",
        "da"
      ],
      [
        "Ġvi",
        "si"
      ],
      [
        "Ġme",
        "to"
      ],
      [
        "Å¡ti",
        "ne"
      ],
      [
        "Ġvlasni",
        "k"
      ],
      [
        "Ġprili",
        "kom"
      ],
      [
        "ra",
        "zu"
      ],
      [
        "Ġko",
        "r"
      ],
      [
        "lo",
        "ve"
      ],
      [
        "Ġva",
        "tro"
      ],
      [
        "Ġproizvo",
        "di"
      ],
      [
        "Ġmla",
        "de"
      ],
      [
        "Ġod",
        "u"
      ],
      [
        "Ġvi",
        "de"
      ],
      [
        "Ġpu",
        "bli"
      ],
      [
        "Ġrazli",
        "Äįiti"
      ],
      [
        "g",
        "ri"
      ],
      [
        "l",
        "nik"
      ],
      [
        "va",
        "ja"
      ],
      [
        "Ġpo",
        "la"
      ],
      [
        "Ġna",
        "vi"
      ],
      [
        "Ġko",
        "na"
      ],
      [
        "Ġra",
        "zi"
      ],
      [
        "ku",
        "je"
      ],
      [
        "Ġsta",
        "ndar"
      ],
      [
        "Ġhrvat",
        "skih"
      ],
      [
        "Ġzna",
        "Äįaj"
      ],
      [
        "Ġkla",
        "si"
      ],
      [
        "1",
        "7"
      ],
      [
        "Ġna",
        "ma"
      ],
      [
        "Ġiz",
        "mje"
      ],
      [
        "Äĳe",
        "no"
      ],
      [
        "ĠsadrÅ¾a",
        "j"
      ],
      [
        "ÑĢÐµÐ",
        "´Ð¸"
      ],
      [
        "1",
        "6"
      ],
      [
        "g",
        "dje"
      ],
      [
        "Ġt",
        "j"
      ],
      [
        "Ġka",
        "me"
      ],
      [
        "Ġ2",
        "6"
      ],
      [
        "Ġbe",
        "s"
      ],
      [
        "ĠÅ¡i",
        "ro"
      ],
      [
        "Ġprogra",
        "ma"
      ],
      [
        "l",
        "la"
      ],
      [
        "Ġi",
        "su"
      ],
      [
        "ra",
        "no"
      ],
      [
        "Ġna",
        "pisa"
      ],
      [
        "Ġna",
        "rod"
      ],
      [
        "Ġje",
        "ze"
      ],
      [
        "Ġma",
        "li"
      ],
      [
        "Ġto",
        "liko"
      ],
      [
        "Ġe",
        "x"
      ],
      [
        "Ġku",
        "Äĩi"
      ],
      [
        "Ġdje",
        "ce"
      ],
      [
        "Ġze",
        "le"
      ],
      [
        "Ġi",
        "sko"
      ],
      [
        "Ġpo",
        "te"
      ],
      [
        "Ġmi",
        "je"
      ],
      [
        "Ġsi",
        "je"
      ],
      [
        "Ġ19",
        "7"
      ],
      [
        "Ġkrapi",
        "nsko"
      ],
      [
        "ĠÑĥ",
        "ÑĢÐµÐ´Ð¸"
      ],
      [
        "d",
        "nom"
      ],
      [
        "Ġu",
        "vo"
      ],
      [
        "Ġna",
        "laze"
      ],
      [
        "Ġne",
        "dje"
      ],
      [
        "Ġc",
        "on"
      ],
      [
        "Ġjed",
        "nu"
      ],
      [
        "Ġsveu",
        "Äįili"
      ],
      [
        ".",
        "\""
      ],
      [
        "c",
        "ha"
      ],
      [
        "Ġpo",
        "re"
      ],
      [
        "Ġod",
        "li"
      ],
      [
        "Ġdi",
        "s"
      ],
      [
        "Ġveli",
        "ka"
      ],
      [
        "Ġcr",
        "ve"
      ],
      [
        "Å¡nje",
        "g"
      ],
      [
        "Ġu",
        "kra"
      ],
      [
        "Ġna",
        "ru"
      ],
      [
        "lo",
        "v"
      ],
      [
        "Äįi",
        "ca"
      ],
      [
        "Ġli",
        "pnja"
      ],
      [
        "ĠÅ¾e",
        "na"
      ],
      [
        "Ġposta",
        "je"
      ],
      [
        "Å¡no",
        "knji"
      ],
      [
        "Ġb",
        "rani"
      ],
      [
        "Ġza",
        "pravo"
      ],
      [
        "Ġma",
        "le"
      ],
      [
        "pi",
        "ta"
      ],
      [
        "Ġbo",
        "lje"
      ],
      [
        "Ġva",
        "nj"
      ],
      [
        "Ġkra",
        "ja"
      ],
      [
        "Ġci",
        "lj"
      ],
      [
        "Ġdobi",
        "o"
      ],
      [
        "Ġpono",
        "vno"
      ],
      [
        "Ġspli",
        "t"
      ],
      [
        "Ġobje",
        "kata"
      ],
      [
        "Ġpoku",
        "Å¡a"
      ],
      [
        "Ġsim",
        "bo"
      ],
      [
        "ta",
        "c"
      ],
      [
        "ne",
        "se"
      ],
      [
        "te",
        "d"
      ],
      [
        "Ġza",
        "Å¡to"
      ],
      [
        "st",
        "re"
      ],
      [
        "Ġpri",
        "su"
      ],
      [
        "Ġfi",
        "zi"
      ],
      [
        "Ġju",
        "go"
      ],
      [
        "Ġfa",
        "kul"
      ],
      [
        "pri",
        "v"
      ],
      [
        "âĢľ",
        ","
      ],
      [
        "Ġsusta",
        "v"
      ],
      [
        "Ñ",
        "Ĥ"
      ],
      [
        "di",
        "li"
      ],
      [
        "si",
        "ja"
      ],
      [
        "Ġhrvat",
        "sku"
      ],
      [
        "dno",
        "j"
      ],
      [
        "Ġzemlji",
        "Å¡noknji"
      ],
      [
        "Ġljuba",
        "v"
      ],
      [
        "Ġsklo",
        "pu"
      ],
      [
        "t",
        "nom"
      ],
      [
        "Ġse",
        "rvi"
      ],
      [
        "Ġpri",
        "ma"
      ],
      [
        "Ġf",
        "ri"
      ],
      [
        "Ġme",
        "ne"
      ],
      [
        "Ġnaj",
        "viÅ¡e"
      ],
      [
        "ĠzaÅ¡ti",
        "te"
      ],
      [
        "Ġsigu",
        "rno"
      ],
      [
        "'",
        ","
      ],
      [
        "j",
        "ska"
      ],
      [
        "Ġ",
        "..."
      ],
      [
        "Ġg",
        "ri"
      ],
      [
        "Ġiz",
        "gu"
      ],
      [
        "Ġre",
        "d"
      ],
      [
        "Ġde",
        "ta"
      ],
      [
        "Ġoso",
        "b"
      ],
      [
        "Ġnad",
        "le"
      ],
      [
        "Ġpovije",
        "sti"
      ],
      [
        "Ġsm",
        "rti"
      ],
      [
        "y",
        "a"
      ],
      [
        "ve",
        "li"
      ],
      [
        "lo",
        "sti"
      ],
      [
        "Ġsa",
        "sto"
      ],
      [
        "Äĩi",
        "m"
      ],
      [
        "Ġsla",
        "vo"
      ],
      [
        "telji",
        "ma"
      ],
      [
        "Ġvidje",
        "ti"
      ],
      [
        "kazu",
        "je"
      ],
      [
        "e",
        "x"
      ],
      [
        "ka",
        "d"
      ],
      [
        "Ġsu",
        "tra"
      ],
      [
        "Ġpro",
        "sla"
      ],
      [
        "pa",
        "n"
      ],
      [
        "Ġe",
        "pi"
      ],
      [
        "Ġ19",
        "6"
      ],
      [
        "Ġs",
        "ce"
      ],
      [
        "Ġs",
        "jedni"
      ],
      [
        "Ġdi",
        "na"
      ],
      [
        "Ġzna",
        "m"
      ],
      [
        "Ġtra",
        "Å¾i"
      ],
      [
        "cij",
        "ske"
      ],
      [
        "Ġpopu",
        "la"
      ],
      [
        "Ġopre",
        "me"
      ],
      [
        "Ġmuze",
        "ja"
      ],
      [
        "Ġkate",
        "go"
      ],
      [
        "1",
        "3"
      ],
      [
        "d",
        "nih"
      ],
      [
        "Ġna",
        "Å¡a"
      ],
      [
        "Ġna",
        "gla"
      ],
      [
        "Ġje",
        "la"
      ],
      [
        "za",
        "gor"
      ],
      [
        "Ġan",
        "Äĳe"
      ],
      [
        "Ġpje",
        "sni"
      ],
      [
        "Ġizvo",
        "r"
      ],
      [
        "j",
        "skog"
      ],
      [
        "s",
        "nu"
      ],
      [
        "Ġpo",
        "ljo"
      ],
      [
        "vi",
        "nu"
      ],
      [
        "Ġmo",
        "gli"
      ],
      [
        "fe",
        "ren"
      ],
      [
        "Ġindu",
        "stri"
      ],
      [
        "Ġpri",
        "mi"
      ],
      [
        "Ġe",
        "ki"
      ],
      [
        "Ġre",
        "du"
      ],
      [
        "Ġprije",
        "vo"
      ],
      [
        "Ġrije",
        "ke"
      ],
      [
        "Ġ201",
        "2"
      ],
      [
        "ĠmoguÄĩ",
        "nost"
      ],
      [
        "d",
        "nja"
      ],
      [
        "Ġz",
        "vu"
      ],
      [
        "Ġve",
        "r"
      ],
      [
        "Ġp",
        "si"
      ],
      [
        "ko",
        "ve"
      ],
      [
        "ti",
        "n"
      ],
      [
        "Ġpo",
        "lu"
      ],
      [
        "Ġpro",
        "du"
      ],
      [
        "Ġre",
        "sto"
      ],
      [
        "Ġnaj",
        "po"
      ],
      [
        "Ġvje",
        "ru"
      ],
      [
        "Ġri",
        "m"
      ],
      [
        "Ġposta",
        "o"
      ],
      [
        "Ġosno",
        "vana"
      ],
      [
        "ĠvlasniÅ¡t",
        "vo"
      ],
      [
        "va",
        "ni"
      ],
      [
        "li",
        "na"
      ],
      [
        "Ġda",
        "je"
      ],
      [
        "Ġpro",
        "si"
      ],
      [
        "Ġ2",
        "7"
      ],
      [
        "Ġbo",
        "ja"
      ],
      [
        "Ġapart",
        "mani"
      ],
      [
        "na",
        "ti"
      ],
      [
        "ra",
        "z"
      ],
      [
        "Ġza",
        "u"
      ],
      [
        "Ġdo",
        "la"
      ],
      [
        "Ġpri",
        "go"
      ],
      [
        "Ġmo",
        "r"
      ],
      [
        "pi",
        "ra"
      ],
      [
        "âĢĿ",
        ","
      ],
      [
        "Ġbole",
        "sti"
      ],
      [
        "Ġhote",
        "l"
      ],
      [
        "to",
        "vi"
      ],
      [
        "Ġpro",
        "vo"
      ],
      [
        "lje",
        "na"
      ],
      [
        "Äįa",
        "k"
      ],
      [
        "Äĳe",
        "ne"
      ],
      [
        "nju",
        "je"
      ],
      [
        "Ġde",
        "set"
      ],
      [
        "Ġok",
        "vi"
      ],
      [
        "sviba",
        "nja"
      ],
      [
        "Ġpre",
        "h"
      ],
      [
        "lje",
        "n"
      ],
      [
        "Äĩe",
        "ni"
      ],
      [
        "Ġin",
        "di"
      ],
      [
        "ĠÅ¾i",
        "vi"
      ],
      [
        "l",
        "nom"
      ],
      [
        "ka",
        "de"
      ],
      [
        "Ġko",
        "le"
      ],
      [
        "Ġsu",
        "bo"
      ],
      [
        "Ġpri",
        "pa"
      ],
      [
        "Ġ2",
        "9"
      ],
      [
        "Ġosta",
        "lih"
      ],
      [
        "fe",
        "re"
      ],
      [
        "Ġsvje",
        "do"
      ],
      [
        "Ġakti",
        "vnosti"
      ],
      [
        "~",
        "~"
      ],
      [
        "ti",
        "Äĩ"
      ],
      [
        "no",
        "s"
      ],
      [
        "Ġse",
        "bi"
      ],
      [
        "Ġra",
        "de"
      ],
      [
        "mi",
        "ja"
      ],
      [
        "be",
        "r"
      ],
      [
        "Ġlju",
        "de"
      ],
      [
        "Ġsto",
        "ga"
      ],
      [
        "Ġzem",
        "lja"
      ],
      [
        "Ġnjiho",
        "ve"
      ],
      [
        "a",
        "li"
      ],
      [
        "na",
        "ca"
      ],
      [
        "ma",
        "nje"
      ],
      [
        "ro",
        "va"
      ],
      [
        "Ġne",
        "w"
      ],
      [
        "bi",
        "li"
      ],
      [
        "gra",
        "f"
      ],
      [
        "Ġci",
        "klu"
      ],
      [
        "Ġupra",
        "ve"
      ],
      [
        "ĠpoÄįe",
        "tkom"
      ],
      [
        "Ġ201",
        "0"
      ],
      [
        "ĠodreÄĳe",
        "no"
      ],
      [
        "re",
        "na"
      ],
      [
        "Ġb",
        "je"
      ],
      [
        "Ġka",
        "toli"
      ],
      [
        "Ġpri",
        "la"
      ],
      [
        "Ġte",
        "o"
      ],
      [
        "do",
        "v"
      ],
      [
        "ĠpodruÄį",
        "je"
      ],
      [
        "ĠzaÅ¡ti",
        "tu"
      ],
      [
        "Ġjezi",
        "k"
      ],
      [
        "ĠÄįovje",
        "ka"
      ],
      [
        "Ġproble",
        "m"
      ],
      [
        "201",
        "2"
      ],
      [
        "ĠÅ¾ivoti",
        "nja"
      ],
      [
        "0",
        "7"
      ],
      [
        "s",
        "h"
      ],
      [
        "Ġo",
        "nih"
      ],
      [
        "ti",
        "ne"
      ],
      [
        "ga",
        "r"
      ],
      [
        "Ġpri",
        "rod"
      ],
      [
        "Å¾e",
        "n"
      ],
      [
        "Ġpoduze",
        "Äĩe"
      ],
      [
        "Ġpolo",
        "Å¾a"
      ],
      [
        "l",
        "nu"
      ],
      [
        "Ġ1",
        "00"
      ],
      [
        "Ġf",
        "re"
      ],
      [
        "Ġve",
        "le"
      ],
      [
        "Ġno",
        "vina"
      ],
      [
        "Ġja",
        "vne"
      ],
      [
        "dni",
        "k"
      ],
      [
        "Ġis",
        "te"
      ],
      [
        "zo",
        "m"
      ],
      [
        "Ġr",
        "h"
      ],
      [
        "200",
        "8"
      ],
      [
        "Ġarhi",
        "v"
      ],
      [
        "Ġprojek",
        "t"
      ],
      [
        "Ġo",
        "ru"
      ],
      [
        "Ġza",
        "ba"
      ],
      [
        "Äĩi",
        "ma"
      ],
      [
        "Ġop",
        "tu"
      ],
      [
        "Ġge",
        "o"
      ],
      [
        "0",
        "9"
      ],
      [
        "l",
        "ti"
      ],
      [
        "Ġpo",
        "bo"
      ],
      [
        "Ġpo",
        "sao"
      ],
      [
        "Ġpro",
        "mo"
      ],
      [
        "Äįi",
        "ta"
      ],
      [
        "Ġlju",
        "bi"
      ],
      [
        "cij",
        "ski"
      ],
      [
        "Ġ201",
        "1"
      ],
      [
        "Ġbr",
        "zi"
      ],
      [
        "Ġit",
        "d"
      ],
      [
        "Ġvatro",
        "ga"
      ],
      [
        ".",
        "-"
      ],
      [
        "Ġza",
        "da"
      ],
      [
        "nog",
        "ra"
      ],
      [
        "Ġno",
        "vih"
      ],
      [
        "Ġproizvo",
        "Äĳa"
      ],
      [
        "Ġposje",
        "ti"
      ],
      [
        "Ġtro",
        "Å¡ko"
      ],
      [
        "Ġpoda",
        "taka"
      ],
      [
        "laza",
        "k"
      ],
      [
        "Ġlisto",
        "pada"
      ],
      [
        "Ġpoljo",
        "priv"
      ],
      [
        "Ġna",
        "vede"
      ],
      [
        "Ġka",
        "ra"
      ],
      [
        "si",
        "ma"
      ],
      [
        "do",
        "ve"
      ],
      [
        "Ġ200",
        "9"
      ],
      [
        "Ġkr",
        "Å¡Äĩa"
      ],
      [
        "ĠÅ¾upa",
        "ni"
      ],
      [
        "t",
        "lji"
      ],
      [
        "x",
        "x"
      ],
      [
        "la",
        "Å¾e"
      ],
      [
        "Ġza",
        "vrÅ¡i"
      ],
      [
        "Ġko",
        "jom"
      ],
      [
        "Ġosta",
        "le"
      ],
      [
        "Ġsr",
        "pnja"
      ],
      [
        "j",
        "ni"
      ],
      [
        "s",
        "vje"
      ],
      [
        "va",
        "le"
      ],
      [
        "da",
        "na"
      ],
      [
        "Ġiz",
        "gleda"
      ],
      [
        "po",
        "m"
      ],
      [
        "Ġre",
        "li"
      ],
      [
        "Ġos",
        "lo"
      ],
      [
        "Ġnjego",
        "vo"
      ],
      [
        "Ġbla",
        "go"
      ],
      [
        "i",
        "sta"
      ],
      [
        "Ġna",
        "Äĩi"
      ],
      [
        "Ġpro",
        "Å¡i"
      ],
      [
        "bi",
        "la"
      ],
      [
        "Ġvla",
        "di"
      ],
      [
        "Äĳu",
        "ju"
      ],
      [
        "Ġnjego",
        "vu"
      ],
      [
        "Ġprija",
        "m"
      ],
      [
        "Ġpovije",
        "st"
      ],
      [
        "ĠmeÄĳuna",
        "rod"
      ],
      [
        "ĠrjeÅ¡e",
        "nja"
      ],
      [
        "n",
        "skim"
      ],
      [
        "o",
        "ni"
      ],
      [
        "s",
        "si"
      ],
      [
        "Ġda",
        "le"
      ],
      [
[...]
